{
  "version": "1.0",
  "truncation": null,
  "padding": null,
  "added_tokens": [
    {
      "id": 0,
      "content": "<s>",
      "single_word": false,
      "lstrip": false,
      "rstrip": false,
      "normalized": false,
      "special": true
    },
    {
      "id": 1,
      "content": "<pad>",
      "single_word": false,
      "lstrip": false,
      "rstrip": false,
      "normalized": false,
      "special": true
    },
    {
      "id": 2,
      "content": "</s>",
      "single_word": false,
      "lstrip": false,
      "rstrip": false,
      "normalized": false,
      "special": true
    },
    {
      "id": 3,
      "content": "<unk>",
      "single_word": false,
      "lstrip": false,
      "rstrip": false,
      "normalized": false,
      "special": true
    },
    {
      "id": 4,
      "content": "<mask>",
      "single_word": false,
      "lstrip": false,
      "rstrip": false,
      "normalized": false,
      "special": true
    }
  ],
  "normalizer": null,
  "pre_tokenizer": {
    "type": "Whitespace"
  },
  "post_processor": null,
  "decoder": null,
  "model": {
    "type": "BPE",
    "dropout": null,
    "unk_token": null,
    "continuing_subword_prefix": null,
    "end_of_word_suffix": null,
    "fuse_unk": false,
    "byte_fallback": false,
    "vocab": {
      "<s>": 0,
      "<pad>": 1,
      "</s>": 2,
      "<unk>": 3,
      "<mask>": 4,
      "!": 5,
      "\"": 6,
      "#": 7,
      "$": 8,
      "%": 9,
      "&": 10,
      "'": 11,
      "(": 12,
      ")": 13,
      "*": 14,
      "+": 15,
      ",": 16,
      "-": 17,
      ".": 18,
      "/": 19,
      "0": 20,
      "1": 21,
      "2": 22,
      "3": 23,
      "4": 24,
      "5": 25,
      "6": 26,
      "7": 27,
      "8": 28,
      "9": 29,
      ":": 30,
      ";": 31,
      "<": 32,
      "=": 33,
      ">": 34,
      "?": 35,
      "@": 36,
      "A": 37,
      "B": 38,
      "C": 39,
      "D": 40,
      "E": 41,
      "F": 42,
      "G": 43,
      "H": 44,
      "I": 45,
      "J": 46,
      "K": 47,
      "L": 48,
      "M": 49,
      "N": 50,
      "O": 51,
      "P": 52,
      "Q": 53,
      "R": 54,
      "S": 55,
      "T": 56,
      "U": 57,
      "V": 58,
      "W": 59,
      "X": 60,
      "Y": 61,
      "Z": 62,
      "\\": 63,
      "^": 64,
      "_": 65,
      "`": 66,
      "a": 67,
      "b": 68,
      "c": 69,
      "d": 70,
      "e": 71,
      "f": 72,
      "g": 73,
      "h": 74,
      "i": 75,
      "j": 76,
      "k": 77,
      "l": 78,
      "m": 79,
      "n": 80,
      "o": 81,
      "p": 82,
      "q": 83,
      "r": 84,
      "s": 85,
      "t": 86,
      "u": 87,
      "v": 88,
      "w": 89,
      "x": 90,
      "y": 91,
      "z": 92,
      "{": 93,
      "|": 94,
      "}": 95,
      "~": 96,
      "": 97,
      "": 98,
      "": 99,
      "": 100,
      "": 101,
      "": 102,
      "": 103,
      "¡": 104,
      "¢": 105,
      "£": 106,
      "¤": 107,
      "¥": 108,
      "¦": 109,
      "§": 110,
      "¨": 111,
      "©": 112,
      "ª": 113,
      "«": 114,
      "¬": 115,
      "­": 116,
      "®": 117,
      "¯": 118,
      "°": 119,
      "±": 120,
      "²": 121,
      "³": 122,
      "´": 123,
      "µ": 124,
      "¶": 125,
      "·": 126,
      "¸": 127,
      "¹": 128,
      "º": 129,
      "»": 130,
      "¼": 131,
      "½": 132,
      "¾": 133,
      "¿": 134,
      "À": 135,
      "Á": 136,
      "Â": 137,
      "Ã": 138,
      "Ä": 139,
      "Å": 140,
      "Æ": 141,
      "Ç": 142,
      "È": 143,
      "É": 144,
      "Ê": 145,
      "Ë": 146,
      "Ì": 147,
      "Í": 148,
      "Î": 149,
      "Ï": 150,
      "Ð": 151,
      "Ñ": 152,
      "Ò": 153,
      "Ó": 154,
      "Ô": 155,
      "Õ": 156,
      "Ö": 157,
      "×": 158,
      "Ø": 159,
      "Ù": 160,
      "Ú": 161,
      "Û": 162,
      "Ü": 163,
      "Ý": 164,
      "Þ": 165,
      "ß": 166,
      "à": 167,
      "á": 168,
      "â": 169,
      "ã": 170,
      "ä": 171,
      "å": 172,
      "æ": 173,
      "ç": 174,
      "è": 175,
      "é": 176,
      "ê": 177,
      "ë": 178,
      "ì": 179,
      "í": 180,
      "î": 181,
      "ï": 182,
      "ð": 183,
      "ñ": 184,
      "ò": 185,
      "ó": 186,
      "ô": 187,
      "õ": 188,
      "ö": 189,
      "÷": 190,
      "ø": 191,
      "ù": 192,
      "ú": 193,
      "û": 194,
      "ü": 195,
      "ý": 196,
      "þ": 197,
      "ÿ": 198,
      "Ā": 199,
      "ā": 200,
      "Ă": 201,
      "ă": 202,
      "Ą": 203,
      "ą": 204,
      "Ć": 205,
      "ć": 206,
      "Ĉ": 207,
      "ĉ": 208,
      "Ċ": 209,
      "ċ": 210,
      "Č": 211,
      "č": 212,
      "Ď": 213,
      "ď": 214,
      "Đ": 215,
      "đ": 216,
      "Ē": 217,
      "ē": 218,
      "Ĕ": 219,
      "ĕ": 220,
      "Ė": 221,
      "ė": 222,
      "Ę": 223,
      "ę": 224,
      "Ě": 225,
      "ě": 226,
      "Ĝ": 227,
      "ĝ": 228,
      "Ğ": 229,
      "ğ": 230,
      "Ġ": 231,
      "ġ": 232,
      "Ģ": 233,
      "ģ": 234,
      "Ĥ": 235,
      "ĥ": 236,
      "Ħ": 237,
      "ħ": 238,
      "ĩ": 239,
      "Ī": 240,
      "ī": 241,
      "Ĭ": 242,
      "ĭ": 243,
      "Į": 244,
      "į": 245,
      "İ": 246,
      "ı": 247,
      "Ĳ": 248,
      "ĳ": 249,
      "Ĵ": 250,
      "ĵ": 251,
      "Ķ": 252,
      "ķ": 253,
      "Ĺ": 254,
      "ĺ": 255,
      "Ļ": 256,
      "ļ": 257,
      "Ľ": 258,
      "ľ": 259,
      "Ŀ": 260,
      "ŀ": 261,
      "Ł": 262,
      "ł": 263,
      "Ń": 264,
      "ń": 265,
      "Ņ": 266,
      "ņ": 267,
      "Ň": 268,
      "ň": 269,
      "Ŋ": 270,
      "ŋ": 271,
      "Ō": 272,
      "ō": 273,
      "Ŏ": 274,
      "ŏ": 275,
      "Ő": 276,
      "ő": 277,
      "Œ": 278,
      "œ": 279,
      "Ŕ": 280,
      "ŕ": 281,
      "Ŗ": 282,
      "ŗ": 283,
      "Ř": 284,
      "ř": 285,
      "Ś": 286,
      "ś": 287,
      "Ŝ": 288,
      "ŝ": 289,
      "Ş": 290,
      "ş": 291,
      "Š": 292,
      "š": 293,
      "Ţ": 294,
      "ţ": 295,
      "Ť": 296,
      "ť": 297,
      "Ŧ": 298,
      "ŧ": 299,
      "Ũ": 300,
      "ũ": 301,
      "Ū": 302,
      "ū": 303,
      "Ŭ": 304,
      "ŭ": 305,
      "Ů": 306,
      "ů": 307,
      "Ű": 308,
      "ű": 309,
      "Ų": 310,
      "ų": 311,
      "ŵ": 312,
      "ŷ": 313,
      "Ÿ": 314,
      "Ź": 315,
      "ź": 316,
      "Ż": 317,
      "ż": 318,
      "Ž": 319,
      "ž": 320,
      "ſ": 321,
      "ƀ": 322,
      "Ɔ": 323,
      "Ɖ": 324,
      "Ǝ": 325,
      "Ə": 326,
      "ƒ": 327,
      "Ɣ": 328,
      "ƙ": 329,
      "ƛ": 330,
      "ƞ": 331,
      "Ơ": 332,
      "ơ": 333,
      "ƣ": 334,
      "Ƨ": 335,
      "ƭ": 336,
      "Ư": 337,
      "ư": 338,
      "Ʊ": 339,
      "Ƶ": 340,
      "ƶ": 341,
      "Ʒ": 342,
      "ƿ": 343,
      "ǀ": 344,
      "ǁ": 345,
      "ǂ": 346,
      "ǃ": 347,
      "Ǆ": 348,
      "ǅ": 349,
      "ǎ": 350,
      "Ǐ": 351,
      "ǐ": 352,
      "ǒ": 353,
      "Ǔ": 354,
      "ǔ": 355,
      "ǖ": 356,
      "Ǘ": 357,
      "ǘ": 358,
      "ǚ": 359,
      "Ǜ": 360,
      "ǜ": 361,
      "ǝ": 362,
      "ǟ": 363,
      "ǣ": 364,
      "Ǥ": 365,
      "ǥ": 366,
      "Ǧ": 367,
      "ǧ": 368,
      "Ǩ": 369,
      "ǩ": 370,
      "ǫ": 371,
      "Ǯ": 372,
      "ǯ": 373,
      "ǰ": 374,
      "Ǵ": 375,
      "ǵ": 376,
      "Ƿ": 377,
      "Ǹ": 378,
      "ǹ": 379,
      "Ǻ": 380,
      "ǻ": 381,
      "Ǽ": 382,
      "ǽ": 383,
      "Ǿ": 384,
      "ǿ": 385,
      "Ȁ": 386,
      "ȁ": 387,
      "ȃ": 388,
      "Ȅ": 389,
      "ȅ": 390,
      "Ȉ": 391,
      "ȉ": 392,
      "Ȍ": 393,
      "ȍ": 394,
      "Ȑ": 395,
      "ȑ": 396,
      "Ȕ": 397,
      "ȕ": 398,
      "ȗ": 399,
      "Ș": 400,
      "ș": 401,
      "Ț": 402,
      "ț": 403,
      "ȝ": 404,
      "Ȟ": 405,
      "ȟ": 406,
      "ȣ": 407,
      "ȥ": 408,
      "Ȧ": 409,
      "ȧ": 410,
      "ȩ": 411,
      "ȫ": 412,
      "ȭ": 413,
      "ȯ": 414,
      "ȱ": 415,
      "Ȳ": 416,
      "ȳ": 417,
      "ȷ": 418,
      "Ɂ": 419,
      "ɂ": 420,
      "ɐ": 421,
      "ɑ": 422,
      "ɒ": 423,
      "ɓ": 424,
      "ɔ": 425,
      "ɕ": 426,
      "ɖ": 427,
      "ɗ": 428,
      "ɘ": 429,
      "ə": 430,
      "ɚ": 431,
      "ɛ": 432,
      "ɜ": 433,
      "ɝ": 434,
      "ɟ": 435,
      "ɡ": 436,
      "ɢ": 437,
      "ɣ": 438,
      "ɤ": 439,
      "ɥ": 440,
      "ɦ": 441,
      "ɧ": 442,
      "ɨ": 443,
      "ɪ": 444,
      "ɫ": 445,
      "ɬ": 446,
      "ɭ": 447,
      "ɮ": 448,
      "ɯ": 449,
      "ɰ": 450,
      "ɱ": 451,
      "ɲ": 452,
      "ɳ": 453,
      "ɴ": 454,
      "ɵ": 455,
      "ɶ": 456,
      "ɷ": 457,
      "ɸ": 458,
      "ɹ": 459,
      "ɺ": 460,
      "ɻ": 461,
      "ɽ": 462,
      "ɾ": 463,
      "ʀ": 464,
      "ʁ": 465,
      "ʂ": 466,
      "ʃ": 467,
      "ʆ": 468,
      "ʈ": 469,
      "ʉ": 470,
      "ʊ": 471,
      "ʋ": 472,
      "ʌ": 473,
      "ʍ": 474,
      "ʎ": 475,
      "ʏ": 476,
      "ʐ": 477,
      "ʑ": 478,
      "ʒ": 479,
      "ʓ": 480,
      "ʔ": 481,
      "ʕ": 482,
      "ʘ": 483,
      "ʙ": 484,
      "ʝ": 485,
      "ʟ": 486,
      "ʢ": 487,
      "ʣ": 488,
      "ʤ": 489,
      "ʦ": 490,
      "ʧ": 491,
      "ʨ": 492,
      "ʰ": 493,
      "ʱ": 494,
      "ʲ": 495,
      "ʳ": 496,
      "ʷ": 497,
      "ʸ": 498,
      "ʹ": 499,
      "ʺ": 500,
      "ʻ": 501,
      "ʼ": 502,
      "ʽ": 503,
      "ʾ": 504,
      "ʿ": 505,
      "ˀ": 506,
      "ˁ": 507,
      "ˆ": 508,
      "ˇ": 509,
      "ˈ": 510,
      "ˉ": 511,
      "ˊ": 512,
      "ˋ": 513,
      "ˌ": 514,
      "ˍ": 515,
      "ː": 516,
      "ˑ": 517,
      "˒": 518,
      "˔": 519,
      "˘": 520,
      "˚": 521,
      "˛": 522,
      "˜": 523,
      "˝": 524,
      "˟": 525,
      "ˠ": 526,
      "ˡ": 527,
      "ˢ": 528,
      "ˣ": 529,
      "ˤ": 530,
      "˥": 531,
      "˧": 532,
      "˨": 533,
      "˩": 534,
      "˱": 535,
      "˲": 536,
      "˽": 537,
      "˾": 538,
      "̀": 539,
      "́": 540,
      "̂": 541,
      "̃": 542,
      "̄": 543,
      "̅": 544,
      "̆": 545,
      "̇": 546,
      "̈": 547,
      "̉": 548,
      "̊": 549,
      "̋": 550,
      "̌": 551,
      "̍": 552,
      "̏": 553,
      "̐": 554,
      "̑": 555,
      "̕": 556,
      "̗": 557,
      "̝": 558,
      "̞": 559,
      "̟": 560,
      "̠": 561,
      "̢": 562,
      "̣": 563,
      "̤": 564,
      "̥": 565,
      "̧": 566,
      "̨": 567,
      "̩": 568,
      "̪": 569,
      "̬": 570,
      "̭": 571,
      "̮": 572,
      "̯": 573,
      "̰": 574,
      "̱": 575,
      "̲": 576,
      "̴": 577,
      "̵": 578,
      "̺": 579,
      "̻": 580,
      "́": 581,
      "͐": 582,
      "͔": 583,
      "͕": 584,
      "͘": 585,
      "͜": 586,
      "͡": 587,
      "ͤ": 588,
      "Ͱ": 589,
      "ͱ": 590,
      "Ͳ": 591,
      "ͳ": 592,
      "͵": 593,
      "΄": 594,
      "Ά": 595,
      "Έ": 596,
      "Ή": 597,
      "Ί": 598,
      "Ό": 599,
      "Ύ": 600,
      "Ώ": 601,
      "ΐ": 602,
      "Α": 603,
      "Β": 604,
      "Γ": 605,
      "Δ": 606,
      "Ε": 607,
      "Ζ": 608,
      "Η": 609,
      "Θ": 610,
      "Ι": 611,
      "Κ": 612,
      "Λ": 613,
      "Μ": 614,
      "Ν": 615,
      "Ξ": 616,
      "Ο": 617,
      "Π": 618,
      "Ρ": 619,
      "Σ": 620,
      "Τ": 621,
      "Υ": 622,
      "Φ": 623,
      "Χ": 624,
      "Ψ": 625,
      "Ω": 626,
      "Ϊ": 627,
      "ά": 628,
      "έ": 629,
      "ή": 630,
      "ί": 631,
      "ΰ": 632,
      "α": 633,
      "β": 634,
      "γ": 635,
      "δ": 636,
      "ε": 637,
      "ζ": 638,
      "η": 639,
      "θ": 640,
      "ι": 641,
      "κ": 642,
      "λ": 643,
      "μ": 644,
      "ν": 645,
      "ξ": 646,
      "ο": 647,
      "π": 648,
      "ρ": 649,
      "ς": 650,
      "σ": 651,
      "τ": 652,
      "υ": 653,
      "φ": 654,
      "χ": 655,
      "ψ": 656,
      "ω": 657,
      "ϊ": 658,
      "ϋ": 659,
      "ό": 660,
      "ύ": 661,
      "ώ": 662,
      "ϐ": 663,
      "ϑ": 664,
      "ϒ": 665,
      "ϕ": 666,
      "Ϙ": 667,
      "ϙ": 668,
      "Ϛ": 669,
      "ϛ": 670,
      "Ϝ": 671,
      "ϝ": 672,
      "Ϟ": 673,
      "ϟ": 674,
      "Ϡ": 675,
      "ϡ": 676,
      "Ϧ": 677,
      "ϩ": 678,
      "ϰ": 679,
      "ϱ": 680,
      "ϳ": 681,
      "ϵ": 682,
      "Ϸ": 683,
      "ϸ": 684,
      "Ϲ": 685,
      "Ϻ": 686,
      "ϻ": 687,
      "Ѐ": 688,
      "Ё": 689,
      "Ђ": 690,
      "Ѓ": 691,
      "Є": 692,
      "Ѕ": 693,
      "І": 694,
      "Ї": 695,
      "Ј": 696,
      "Љ": 697,
      "Њ": 698,
      "Ћ": 699,
      "Ќ": 700,
      "Ѝ": 701,
      "Ў": 702,
      "Џ": 703,
      "А": 704,
      "Б": 705,
      "В": 706,
      "Г": 707,
      "Д": 708,
      "Е": 709,
      "Ж": 710,
      "З": 711,
      "И": 712,
      "Й": 713,
      "К": 714,
      "Л": 715,
      "М": 716,
      "Н": 717,
      "О": 718,
      "П": 719,
      "Р": 720,
      "С": 721,
      "Т": 722,
      "У": 723,
      "Ф": 724,
      "Х": 725,
      "Ц": 726,
      "Ч": 727,
      "Ш": 728,
      "Щ": 729,
      "Ъ": 730,
      "Ы": 731,
      "Ь": 732,
      "Э": 733,
      "Ю": 734,
      "Я": 735,
      "а": 736,
      "б": 737,
      "в": 738,
      "г": 739,
      "д": 740,
      "е": 741,
      "ж": 742,
      "з": 743,
      "и": 744,
      "й": 745,
      "к": 746,
      "л": 747,
      "м": 748,
      "н": 749,
      "о": 750,
      "п": 751,
      "р": 752,
      "с": 753,
      "т": 754,
      "у": 755,
      "ф": 756,
      "х": 757,
      "ц": 758,
      "ч": 759,
      "ш": 760,
      "щ": 761,
      "ъ": 762,
      "ы": 763,
      "ь": 764,
      "э": 765,
      "ю": 766,
      "я": 767,
      "ѐ": 768,
      "ё": 769,
      "ђ": 770,
      "ѓ": 771,
      "є": 772,
      "ѕ": 773,
      "і": 774,
      "ї": 775,
      "ј": 776,
      "љ": 777,
      "њ": 778,
      "ћ": 779,
      "ќ": 780,
      "ѝ": 781,
      "ў": 782,
      "џ": 783,
      "Ѡ": 784,
      "ѡ": 785,
      "Ѣ": 786,
      "ѣ": 787,
      "Ѧ": 788,
      "ѧ": 789,
      "Ѫ": 790,
      "ѫ": 791,
      "Ѱ": 792,
      "ѱ": 793,
      "ѳ": 794,
      "ѵ": 795,
      "Ѷ": 796,
      "ѷ": 797,
      "ѹ": 798,
      "Ҍ": 799,
      "ҍ": 800,
      "Ҏ": 801,
      "ҏ": 802,
      "Ґ": 803,
      "ґ": 804,
      "Ғ": 805,
      "ғ": 806,
      "ҕ": 807,
      "Җ": 808,
      "җ": 809,
      "ҙ": 810,
      "Қ": 811,
      "қ": 812,
      "Ҝ": 813,
      "ҝ": 814,
      "ҡ": 815,
      "Ң": 816,
      "ң": 817,
      "ҥ": 818,
      "Ҧ": 819,
      "ҧ": 820,
      "Ҫ": 821,
      "ҫ": 822,
      "ҭ": 823,
      "Ү": 824,
      "ү": 825,
      "Ұ": 826,
      "ұ": 827,
      "Ҳ": 828,
      "ҳ": 829,
      "ҵ": 830,
      "Ҷ": 831,
      "ҷ": 832,
      "Ҹ": 833,
      "ҹ": 834,
      "Һ": 835,
      "һ": 836,
      "Ҿ": 837,
      "Ӏ": 838,
      "ӂ": 839,
      "Ӄ": 840,
      "ӄ": 841,
      "Ӆ": 842,
      "ӆ": 843,
      "Ӈ": 844,
      "ӈ": 845,
      "Ӊ": 846,
      "ӊ": 847,
      "Ӎ": 848,
      "ӎ": 849,
      "ӏ": 850,
      "Ӑ": 851,
      "ӑ": 852,
      "Ӓ": 853,
      "ӓ": 854,
      "ӕ": 855,
      "Ӗ": 856,
      "ӗ": 857,
      "Ә": 858,
      "ә": 859,
      "ӛ": 860,
      "ӡ": 861,
      "Ӣ": 862,
      "ӣ": 863,
      "Ӧ": 864,
      "ӧ": 865,
      "Ө": 866,
      "ө": 867,
      "ӫ": 868,
      "Ӭ": 869,
      "ӭ": 870,
      "ӯ": 871,
      "Ӱ": 872,
      "ӱ": 873,
      "Ӳ": 874,
      "ӳ": 875,
      "ӷ": 876,
      "ӹ": 877,
      "ԁ": 878,
      "ԃ": 879,
      "ԅ": 880,
      "ԇ": 881,
      "ԉ": 882,
      "ԋ": 883,
      "Ԑ": 884,
      "ԓ": 885,
      "Ա": 886,
      "Բ": 887,
      "Գ": 888,
      "Դ": 889,
      "Ե": 890,
      "Զ": 891,
      "Է": 892,
      "Թ": 893,
      "Ի": 894,
      "Լ": 895,
      "Խ": 896,
      "Ծ": 897,
      "Կ": 898,
      "Հ": 899,
      "Ձ": 900,
      "Ղ": 901,
      "Ճ": 902,
      "Մ": 903,
      "Յ": 904,
      "Ն": 905,
      "Շ": 906,
      "Ո": 907,
      "Չ": 908,
      "Պ": 909,
      "Ջ": 910,
      "Ռ": 911,
      "Ս": 912,
      "Վ": 913,
      "Տ": 914,
      "Ւ": 915,
      "Ք": 916,
      "Ֆ": 917,
      "՝": 918,
      "՞": 919,
      "ա": 920,
      "բ": 921,
      "գ": 922,
      "դ": 923,
      "ե": 924,
      "զ": 925,
      "ը": 926,
      "թ": 927,
      "ժ": 928,
      "ի": 929,
      "լ": 930,
      "խ": 931,
      "ծ": 932,
      "կ": 933,
      "հ": 934,
      "ձ": 935,
      "ղ": 936,
      "ճ": 937,
      "մ": 938,
      "յ": 939,
      "ն": 940,
      "շ": 941,
      "ո": 942,
      "չ": 943,
      "պ": 944,
      "ջ": 945,
      "ռ": 946,
      "ս": 947,
      "վ": 948,
      "տ": 949,
      "ր": 950,
      "ց": 951,
      "ւ": 952,
      "փ": 953,
      "ք": 954,
      "օ": 955,
      "և": 956,
      "֑": 957,
      "֖": 958,
      "֗": 959,
      "֘": 960,
      "֚": 961,
      "֜": 962,
      "֣": 963,
      "֥": 964,
      "֪": 965,
      "֫": 966,
      "֬": 967,
      "ְ": 968,
      "ֱ": 969,
      "ֲ": 970,
      "ֳ": 971,
      "ִ": 972,
      "ֵ": 973,
      "ֶ": 974,
      "ַ": 975,
      "ָ": 976,
      "ֹ": 977,
      "ֻ": 978,
      "ּ": 979,
      "ֽ": 980,
      "־": 981,
      "ֿ": 982,
      "ׁ": 983,
      "ׂ": 984,
      "׃": 985,
      "ׇ": 986,
      "א": 987,
      "ב": 988,
      "ג": 989,
      "ד": 990,
      "ה": 991,
      "ו": 992,
      "ז": 993,
      "ח": 994,
      "ט": 995,
      "י": 996,
      "ך": 997,
      "כ": 998,
      "ל": 999,
      "ם": 1000,
      "מ": 1001,
      "ן": 1002,
      "נ": 1003,
      "ס": 1004,
      "ע": 1005,
      "ף": 1006,
      "פ": 1007,
      "ץ": 1008,
      "צ": 1009,
      "ק": 1010,
      "ר": 1011,
      "ש": 1012,
      "ת": 1013,
      "װ": 1014,
      "ײ": 1015,
      "׳": 1016,
      "״": 1017,
      "؁": 1018,
      "،": 1019,
      "؟": 1020,
      "ء": 1021,
      "آ": 1022,
      "أ": 1023,
      "ؤ": 1024,
      "إ": 1025,
      "ئ": 1026,
      "ا": 1027,
      "ب": 1028,
      "ة": 1029,
      "ت": 1030,
      "ث": 1031,
      "ج": 1032,
      "ح": 1033,
      "خ": 1034,
      "د": 1035,
      "ذ": 1036,
      "ر": 1037,
      "ز": 1038,
      "س": 1039,
      "ش": 1040,
      "ص": 1041,
      "ض": 1042,
      "ط": 1043,
      "ظ": 1044,
      "ع": 1045,
      "غ": 1046,
      "ـ": 1047,
      "ف": 1048,
      "ق": 1049,
      "ك": 1050,
      "ل": 1051,
      "م": 1052,
      "ن": 1053,
      "ه": 1054,
      "و": 1055,
      "ى": 1056,
      "ي": 1057,
      "ً": 1058,
      "ٌ": 1059,
      "ٍ": 1060,
      "َ": 1061,
      "ُ": 1062,
      "ِ": 1063,
      "ّ": 1064,
      "ْ": 1065,
      "ٖ": 1066,
      "٩": 1067,
      "ٰ": 1068,
      "ٱ": 1069,
      "ٹ": 1070,
      "ٽ": 1071,
      "پ": 1072,
      "ڀ": 1073,
      "ځ": 1074,
      "ڃ": 1075,
      "ڄ": 1076,
      "چ": 1077,
      "ڇ": 1078,
      "ڈ": 1079,
      "ډ": 1080,
      "ڊ": 1081,
      "ڌ": 1082,
      "ڍ": 1083,
      "ڏ": 1084,
      "ڑ": 1085,
      "ڒ": 1086,
      "ړ": 1087,
      "ڕ": 1088,
      "ژ": 1089,
      "ڙ": 1090,
      "ښ": 1091,
      "ڠ": 1092,
      "ڤ": 1093,
      "ڨ": 1094,
      "ک": 1095,
      "ڪ": 1096,
      "ګ": 1097,
      "ڬ": 1098,
      "ڭ": 1099,
      "گ": 1100,
      "ڵ": 1101,
      "ں": 1102,
      "ڽ": 1103,
      "ھ": 1104,
      "ہ": 1105,
      "ۂ": 1106,
      "ۄ": 1107,
      "ۆ": 1108,
      "ۇ": 1109,
      "ۈ": 1110,
      "ی": 1111,
      "ێ": 1112,
      "ۏ": 1113,
      "ې": 1114,
      "ے": 1115,
      "ە": 1116,
      "۞": 1117,
      "۰": 1118,
      "۱": 1119,
      "۲": 1120,
      "۳": 1121,
      "۴": 1122,
      "۵": 1123,
      "۸": 1124,
      "۹": 1125,
      "܄": 1126,
      "ܐ": 1127,
      "ܒ": 1128,
      "ܓ": 1129,
      "ܕ": 1130,
      "ܖ": 1131,
      "ܗ": 1132,
      "ܘ": 1133,
      "ܙ": 1134,
      "ܚ": 1135,
      "ܛ": 1136,
      "ܝ": 1137,
      "ܟ": 1138,
      "ܠ": 1139,
      "ܡ": 1140,
      "ܢ": 1141,
      "ܣ": 1142,
      "ܥ": 1143,
      "ܦ": 1144,
      "ܨ": 1145,
      "ܩ": 1146,
      "ܪ": 1147,
      "ܫ": 1148,
      "ܬ": 1149,
      "ܰ": 1150,
      "ܲ": 1151,
      "ܵ": 1152,
      "ܸ": 1153,
      "ܹ": 1154,
      "ܼ": 1155,
      "ܽ": 1156,
      "ܿ": 1157,
      "݂": 1158,
      "ݢ": 1159,
      "ހ": 1160,
      "ށ": 1161,
      "ނ": 1162,
      "ރ": 1163,
      "ބ": 1164,
      "ޅ": 1165,
      "ކ": 1166,
      "އ": 1167,
      "ވ": 1168,
      "މ": 1169,
      "ފ": 1170,
      "ދ": 1171,
      "ތ": 1172,
      "ލ": 1173,
      "ގ": 1174,
      "ޏ": 1175,
      "ސ": 1176,
      "ޑ": 1177,
      "ޒ": 1178,
      "ޓ": 1179,
      "ޔ": 1180,
      "ޕ": 1181,
      "ޖ": 1182,
      "ޗ": 1183,
      "ޘ": 1184,
      "ޙ": 1185,
      "ޚ": 1186,
      "ޛ": 1187,
      "ޜ": 1188,
      "ޝ": 1189,
      "ޞ": 1190,
      "ޟ": 1191,
      "ޠ": 1192,
      "ޡ": 1193,
      "ޢ": 1194,
      "ޣ": 1195,
      "ޤ": 1196,
      "ޥ": 1197,
      "ަ": 1198,
      "ާ": 1199,
      "ި": 1200,
      "ީ": 1201,
      "ު": 1202,
      "ޫ": 1203,
      "ެ": 1204,
      "ޭ": 1205,
      "ޮ": 1206,
      "ޯ": 1207,
      "ް": 1208,
      "ߊ": 1209,
      "ߐ": 1210,
      "ߓ": 1211,
      "ߞ": 1212,
      "ߡ": 1213,
      "߬": 1214,
      "ँ": 1215,
      "ं": 1216,
      "ः": 1217,
      "अ": 1218,
      "आ": 1219,
      "इ": 1220,
      "ई": 1221,
      "उ": 1222,
      "ऋ": 1223,
      "ए": 1224,
      "ओ": 1225,
      "क": 1226,
      "ख": 1227,
      "ग": 1228,
      "घ": 1229,
      "ङ": 1230,
      "च": 1231,
      "छ": 1232,
      "ज": 1233,
      "झ": 1234,
      "ञ": 1235,
      "ट": 1236,
      "ठ": 1237,
      "ड": 1238,
      "ढ": 1239,
      "ण": 1240,
      "त": 1241,
      "थ": 1242,
      "द": 1243,
      "ध": 1244,
      "न": 1245,
      "प": 1246,
      "फ": 1247,
      "ब": 1248,
      "भ": 1249,
      "म": 1250,
      "य": 1251,
      "र": 1252,
      "ऱ": 1253,
      "ल": 1254,
      "ळ": 1255,
      "व": 1256,
      "श": 1257,
      "ष": 1258,
      "स": 1259,
      "ह": 1260,
      "़": 1261,
      "ऽ": 1262,
      "ा": 1263,
      "ि": 1264,
      "ी": 1265,
      "ु": 1266,
      "ू": 1267,
      "ृ": 1268,
      "ॄ": 1269,
      "े": 1270,
      "ै": 1271,
      "ो": 1272,
      "ौ": 1273,
      "्": 1274,
      "ॐ": 1275,
      "ड़": 1276,
      "ॢ": 1277,
      "ॣ": 1278,
      "।": 1279,
      "॥": 1280,
      "ঁ": 1281,
      "ং": 1282,
      "ঃ": 1283,
      "অ": 1284,
      "আ": 1285,
      "ই": 1286,
      "উ": 1287,
      "এ": 1288,
      "ও": 1289,
      "ক": 1290,
      "খ": 1291,
      "গ": 1292,
      "ঘ": 1293,
      "ঙ": 1294,
      "চ": 1295,
      "ছ": 1296,
      "জ": 1297,
      "ঝ": 1298,
      "ঞ": 1299,
      "ট": 1300,
      "ঠ": 1301,
      "ড": 1302,
      "ঢ": 1303,
      "ণ": 1304,
      "ত": 1305,
      "থ": 1306,
      "দ": 1307,
      "ধ": 1308,
      "ন": 1309,
      "প": 1310,
      "ফ": 1311,
      "ব": 1312,
      "ভ": 1313,
      "ম": 1314,
      "য": 1315,
      "র": 1316,
      "ল": 1317,
      "শ": 1318,
      "ষ": 1319,
      "স": 1320,
      "হ": 1321,
      "়": 1322,
      "া": 1323,
      "ি": 1324,
      "ী": 1325,
      "ু": 1326,
      "ূ": 1327,
      "ৃ": 1328,
      "ৄ": 1329,
      "ে": 1330,
      "ৈ": 1331,
      "ো": 1332,
      "ৌ": 1333,
      "্": 1334,
      "ৎ": 1335,
      "ড়": 1336,
      "য়": 1337,
      "ৢ": 1338,
      "ৣ": 1339,
      "০": 1340,
      "১": 1341,
      "ৰ": 1342,
      "ਂ": 1343,
      "ਅ": 1344,
      "ਆ": 1345,
      "ਇ": 1346,
      "ਈ": 1347,
      "ਓ": 1348,
      "ਕ": 1349,
      "ਖ": 1350,
      "ਗ": 1351,
      "ਘ": 1352,
      "ਚ": 1353,
      "ਛ": 1354,
      "ਜ": 1355,
      "ਝ": 1356,
      "ਟ": 1357,
      "ਠ": 1358,
      "ਣ": 1359,
      "ਤ": 1360,
      "ਦ": 1361,
      "ਨ": 1362,
      "ਪ": 1363,
      "ਫ": 1364,
      "ਬ": 1365,
      "ਭ": 1366,
      "ਮ": 1367,
      "ਯ": 1368,
      "ਰ": 1369,
      "ਲ": 1370,
      "ਵ": 1371,
      "ਸ": 1372,
      "ਹ": 1373,
      "਼": 1374,
      "ਾ": 1375,
      "ਿ": 1376,
      "ੀ": 1377,
      "ੁ": 1378,
      "ੂ": 1379,
      "ੇ": 1380,
      "ੈ": 1381,
      "ੋ": 1382,
      "ੌ": 1383,
      "੍": 1384,
      "ੜ": 1385,
      "ੰ": 1386,
      "ੱ": 1387,
      "ੴ": 1388,
      "ઁ": 1389,
      "ં": 1390,
      "ઃ": 1391,
      "આ": 1392,
      "એ": 1393,
      "ક": 1394,
      "ગ": 1395,
      "ચ": 1396,
      "છ": 1397,
      "જ": 1398,
      "ઞ": 1399,
      "ટ": 1400,
      "ઠ": 1401,
      "ડ": 1402,
      "ઢ": 1403,
      "ણ": 1404,
      "ત": 1405,
      "દ": 1406,
      "ધ": 1407,
      "ન": 1408,
      "પ": 1409,
      "ફ": 1410,
      "બ": 1411,
      "ભ": 1412,
      "મ": 1413,
      "ય": 1414,
      "ર": 1415,
      "લ": 1416,
      "વ": 1417,
      "શ": 1418,
      "ષ": 1419,
      "સ": 1420,
      "હ": 1421,
      "઼": 1422,
      "ા": 1423,
      "િ": 1424,
      "ી": 1425,
      "ુ": 1426,
      "ૂ": 1427,
      "ૃ": 1428,
      "ૅ": 1429,
      "ે": 1430,
      "ૈ": 1431,
      "ૉ": 1432,
      "ો": 1433,
      "ૌ": 1434,
      "્": 1435,
      "ૠ": 1436,
      "૱": 1437,
      "ଆ": 1438,
      "ଉ": 1439,
      "ଓ": 1440,
      "କ": 1441,
      "ଗ": 1442,
      "ଙ": 1443,
      "ଛ": 1444,
      "ଜ": 1445,
      "ଝ": 1446,
      "ଟ": 1447,
      "ଡ": 1448,
      "ଣ": 1449,
      "ତ": 1450,
      "ଦ": 1451,
      "ନ": 1452,
      "ପ": 1453,
      "ବ": 1454,
      "ଭ": 1455,
      "ମ": 1456,
      "ଯ": 1457,
      "ର": 1458,
      "ଲ": 1459,
      "ଳ": 1460,
      "ଷ": 1461,
      "ସ": 1462,
      "ହ": 1463,
      "଼": 1464,
      "ା": 1465,
      "ି": 1466,
      "ୀ": 1467,
      "ୁ": 1468,
      "ୂ": 1469,
      "ୃ": 1470,
      "ୄ": 1471,
      "େ": 1472,
      "ୈ": 1473,
      "ୋ": 1474,
      "ୌ": 1475,
      "୍": 1476,
      "ୟ": 1477,
      "ୢ": 1478,
      "ୣ": 1479,
      "୦": 1480,
      "୧": 1481,
      "ஃ": 1482,
      "அ": 1483,
      "ஆ": 1484,
      "இ": 1485,
      "உ": 1486,
      "எ": 1487,
      "ஏ": 1488,
      "ஐ": 1489,
      "ஒ": 1490,
      "க": 1491,
      "ங": 1492,
      "ச": 1493,
      "ஜ": 1494,
      "ஞ": 1495,
      "ட": 1496,
      "ண": 1497,
      "த": 1498,
      "ந": 1499,
      "ன": 1500,
      "ப": 1501,
      "ம": 1502,
      "ய": 1503,
      "ர": 1504,
      "ற": 1505,
      "ல": 1506,
      "ள": 1507,
      "ழ": 1508,
      "வ": 1509,
      "ஷ": 1510,
      "ஸ": 1511,
      "ஹ": 1512,
      "ா": 1513,
      "ி": 1514,
      "ீ": 1515,
      "ு": 1516,
      "ூ": 1517,
      "ெ": 1518,
      "ே": 1519,
      "ை": 1520,
      "ொ": 1521,
      "ோ": 1522,
      "ௌ": 1523,
      "்": 1524,
      "ఁ": 1525,
      "ం": 1526,
      "ః": 1527,
      "ఎ": 1528,
      "క": 1529,
      "గ": 1530,
      "ఘ": 1531,
      "చ": 1532,
      "ఛ": 1533,
      "జ": 1534,
      "ఝ": 1535,
      "ట": 1536,
      "డ": 1537,
      "ణ": 1538,
      "త": 1539,
      "ద": 1540,
      "న": 1541,
      "ప": 1542,
      "ఫ": 1543,
      "బ": 1544,
      "భ": 1545,
      "మ": 1546,
      "య": 1547,
      "ర": 1548,
      "ల": 1549,
      "ళ": 1550,
      "వ": 1551,
      "శ": 1552,
      "ష": 1553,
      "స": 1554,
      "హ": 1555,
      "ా": 1556,
      "ి": 1557,
      "ీ": 1558,
      "ు": 1559,
      "ూ": 1560,
      "ృ": 1561,
      "ౄ": 1562,
      "ె": 1563,
      "ే": 1564,
      "ై": 1565,
      "ొ": 1566,
      "ో": 1567,
      "ౌ": 1568,
      "్": 1569,
      "ౢ": 1570,
      "ౣ": 1571,
      "౦": 1572,
      "౩": 1573,
      "౸": 1574,
      "౹": 1575,
      "౽": 1576,
      "ಂ": 1577,
      "ಃ": 1578,
      "ಅ": 1579,
      "ಆ": 1580,
      "ಎ": 1581,
      "ಏ": 1582,
      "ಐ": 1583,
      "ಒ": 1584,
      "ಕ": 1585,
      "ಗ": 1586,
      "ಚ": 1587,
      "ಜ": 1588,
      "ಟ": 1589,
      "ಡ": 1590,
      "ಣ": 1591,
      "ತ": 1592,
      "ದ": 1593,
      "ಧ": 1594,
      "ನ": 1595,
      "ಪ": 1596,
      "ಫ": 1597,
      "ಬ": 1598,
      "ಭ": 1599,
      "ಮ": 1600,
      "ಯ": 1601,
      "ರ": 1602,
      "ಲ": 1603,
      "ಳ": 1604,
      "ವ": 1605,
      "ಷ": 1606,
      "ಸ": 1607,
      "ಹ": 1608,
      "ಾ": 1609,
      "ಿ": 1610,
      "ೀ": 1611,
      "ು": 1612,
      "ೂ": 1613,
      "ೃ": 1614,
      "ೆ": 1615,
      "ೇ": 1616,
      "ೈ": 1617,
      "ೊ": 1618,
      "ೋ": 1619,
      "ೌ": 1620,
      "್": 1621,
      "ം": 1622,
      "ഃ": 1623,
      "ആ": 1624,
      "ഇ": 1625,
      "ഉ": 1626,
      "ഏ": 1627,
      "ക": 1628,
      "ഗ": 1629,
      "ങ": 1630,
      "ച": 1631,
      "ഛ": 1632,
      "ജ": 1633,
      "ഞ": 1634,
      "ട": 1635,
      "ഡ": 1636,
      "ണ": 1637,
      "ത": 1638,
      "ഥ": 1639,
      "ദ": 1640,
      "ന": 1641,
      "പ": 1642,
      "ബ": 1643,
      "ഭ": 1644,
      "മ": 1645,
      "യ": 1646,
      "ര": 1647,
      "റ": 1648,
      "ല": 1649,
      "ള": 1650,
      "ഴ": 1651,
      "വ": 1652,
      "ശ": 1653,
      "ഷ": 1654,
      "സ": 1655,
      "ഹ": 1656,
      "ാ": 1657,
      "ി": 1658,
      "ീ": 1659,
      "ു": 1660,
      "ൂ": 1661,
      "ൃ": 1662,
      "െ": 1663,
      "േ": 1664,
      "ൈ": 1665,
      "ൊ": 1666,
      "ോ": 1667,
      "്": 1668,
      "ൗ": 1669,
      "ൻ": 1670,
      "ർ": 1671,
      "ൽ": 1672,
      "ൾ": 1673,
      "ൿ": 1674,
      "ං": 1675,
      "අ": 1676,
      "එ": 1677,
      "ක": 1678,
      "ග": 1679,
      "ච": 1680,
      "ජ": 1681,
      "ඣ": 1682,
      "ට": 1683,
      "ඩ": 1684,
      "ණ": 1685,
      "ත": 1686,
      "ද": 1687,
      "ධ": 1688,
      "න": 1689,
      "ප": 1690,
      "ම": 1691,
      "ය": 1692,
      "ර": 1693,
      "ල": 1694,
      "ව": 1695,
      "ශ": 1696,
      "ෂ": 1697,
      "ස": 1698,
      "හ": 1699,
      "ළ": 1700,
      "්": 1701,
      "ා": 1702,
      "ැ": 1703,
      "ෑ": 1704,
      "ි": 1705,
      "ී": 1706,
      "ු": 1707,
      "ූ": 1708,
      "ෙ": 1709,
      "ේ": 1710,
      "ො": 1711,
      "ෝ": 1712,
      "ก": 1713,
      "ข": 1714,
      "ค": 1715,
      "ฆ": 1716,
      "ง": 1717,
      "จ": 1718,
      "ฉ": 1719,
      "ช": 1720,
      "ซ": 1721,
      "ญ": 1722,
      "ฎ": 1723,
      "ฏ": 1724,
      "ฐ": 1725,
      "ฒ": 1726,
      "ณ": 1727,
      "ด": 1728,
      "ต": 1729,
      "ถ": 1730,
      "ท": 1731,
      "ธ": 1732,
      "น": 1733,
      "บ": 1734,
      "ป": 1735,
      "ผ": 1736,
      "ฝ": 1737,
      "พ": 1738,
      "ฟ": 1739,
      "ภ": 1740,
      "ม": 1741,
      "ย": 1742,
      "ร": 1743,
      "ฤ": 1744,
      "ล": 1745,
      "ฦ": 1746,
      "ว": 1747,
      "ศ": 1748,
      "ษ": 1749,
      "ส": 1750,
      "ห": 1751,
      "ฬ": 1752,
      "อ": 1753,
      "ฮ": 1754,
      "ฯ": 1755,
      "ะ": 1756,
      "ั": 1757,
      "า": 1758,
      "ำ": 1759,
      "ิ": 1760,
      "ี": 1761,
      "ึ": 1762,
      "ื": 1763,
      "ุ": 1764,
      "ู": 1765,
      "ฺ": 1766,
      "฿": 1767,
      "เ": 1768,
      "แ": 1769,
      "โ": 1770,
      "ใ": 1771,
      "ไ": 1772,
      "ๅ": 1773,
      "ๆ": 1774,
      "็": 1775,
      "่": 1776,
      "้": 1777,
      "๊": 1778,
      "๋": 1779,
      "์": 1780,
      "๐": 1781,
      "๑": 1782,
      "๒": 1783,
      "๕": 1784,
      "ກ": 1785,
      "ຂ": 1786,
      "ຄ": 1787,
      "ງ": 1788,
      "ຈ": 1789,
      "ຊ": 1790,
      "ຍ": 1791,
      "ດ": 1792,
      "ຕ": 1793,
      "ຖ": 1794,
      "ທ": 1795,
      "ນ": 1796,
      "ບ": 1797,
      "ປ": 1798,
      "ຜ": 1799,
      "ພ": 1800,
      "ຟ": 1801,
      "ມ": 1802,
      "ລ": 1803,
      "ວ": 1804,
      "ສ": 1805,
      "ຫ": 1806,
      "ອ": 1807,
      "ະ": 1808,
      "ັ": 1809,
      "າ": 1810,
      "ຳ": 1811,
      "ິ": 1812,
      "ີ": 1813,
      "ື": 1814,
      "ົ": 1815,
      "ເ": 1816,
      "ແ": 1817,
      "ໂ": 1818,
      "ໃ": 1819,
      "ໄ": 1820,
      "່": 1821,
      "້": 1822,
      "ໍ": 1823,
      "໗": 1824,
      "ໝ": 1825,
      "་": 1826,
      "།": 1827,
      "༠": 1828,
      "༡": 1829,
      "ཀ": 1830,
      "ཁ": 1831,
      "ག": 1832,
      "ང": 1833,
      "ཆ": 1834,
      "ཇ": 1835,
      "ཉ": 1836,
      "ཎ": 1837,
      "ཏ": 1838,
      "ཐ": 1839,
      "ད": 1840,
      "ན": 1841,
      "པ": 1842,
      "ཕ": 1843,
      "བ": 1844,
      "མ": 1845,
      "ཙ": 1846,
      "ཚ": 1847,
      "ཛ": 1848,
      "ཝ": 1849,
      "ཞ": 1850,
      "ཟ": 1851,
      "འ": 1852,
      "ཡ": 1853,
      "ར": 1854,
      "ལ": 1855,
      "ཤ": 1856,
      "ས": 1857,
      "ཧ": 1858,
      "ཨ": 1859,
      "ི": 1860,
      "ུ": 1861,
      "ེ": 1862,
      "ོ": 1863,
      "ྐ": 1864,
      "ྒ": 1865,
      "ྔ": 1866,
      "ྕ": 1867,
      "ྗ": 1868,
      "ྙ": 1869,
      "ྟ": 1870,
      "ྡ": 1871,
      "ྣ": 1872,
      "ྤ": 1873,
      "ྦ": 1874,
      "ྨ": 1875,
      "ྩ": 1876,
      "ྫ": 1877,
      "ྱ": 1878,
      "ྲ": 1879,
      "ླ": 1880,
      "ྷ": 1881,
      "ခ": 1882,
      "င": 1883,
      "ည": 1884,
      "ထ": 1885,
      "ဓ": 1886,
      "န": 1887,
      "မ": 1888,
      "ယ": 1889,
      "ရ": 1890,
      "လ": 1891,
      "ဝ": 1892,
      "အ": 1893,
      "ါ": 1894,
      "ာ": 1895,
      "ိ": 1896,
      "ု": 1897,
      "ဲ": 1898,
      "ံ": 1899,
      "့": 1900,
      "း": 1901,
      "်": 1902,
      "ျ": 1903,
      "ြ": 1904,
      "ွ": 1905,
      "၀": 1906,
      "၁": 1907,
      "Ⴀ": 1908,
      "Ⴁ": 1909,
      "Ⴂ": 1910,
      "Ⴃ": 1911,
      "Ⴄ": 1912,
      "Ⴆ": 1913,
      "Ⴇ": 1914,
      "Ⴈ": 1915,
      "Ⴉ": 1916,
      "Ⴊ": 1917,
      "Ⴋ": 1918,
      "Ⴌ": 1919,
      "Ⴍ": 1920,
      "Ⴎ": 1921,
      "Ⴏ": 1922,
      "Ⴐ": 1923,
      "Ⴑ": 1924,
      "Ⴒ": 1925,
      "Ⴓ": 1926,
      "Ⴔ": 1927,
      "Ⴕ": 1928,
      "Ⴖ": 1929,
      "Ⴗ": 1930,
      "Ⴘ": 1931,
      "Ⴙ": 1932,
      "Ⴚ": 1933,
      "Ⴛ": 1934,
      "Ⴜ": 1935,
      "Ⴝ": 1936,
      "Ⴞ": 1937,
      "Ⴟ": 1938,
      "Ⴠ": 1939,
      "ა": 1940,
      "ბ": 1941,
      "გ": 1942,
      "დ": 1943,
      "ე": 1944,
      "ვ": 1945,
      "ზ": 1946,
      "თ": 1947,
      "ი": 1948,
      "კ": 1949,
      "ლ": 1950,
      "მ": 1951,
      "ნ": 1952,
      "ო": 1953,
      "პ": 1954,
      "ჟ": 1955,
      "რ": 1956,
      "ს": 1957,
      "ტ": 1958,
      "უ": 1959,
      "ფ": 1960,
      "ქ": 1961,
      "ღ": 1962,
      "ყ": 1963,
      "შ": 1964,
      "ჩ": 1965,
      "ც": 1966,
      "ძ": 1967,
      "წ": 1968,
      "ჭ": 1969,
      "ხ": 1970,
      "ჯ": 1971,
      "ჰ": 1972,
      "ჲ": 1973,
      "ჳ": 1974,
      "ჴ": 1975,
      "ሁ": 1976,
      "ሃ": 1977,
      "ሄ": 1978,
      "ህ": 1979,
      "ለ": 1980,
      "ሊ": 1981,
      "ላ": 1982,
      "ሌ": 1983,
      "ል": 1984,
      "ሐ": 1985,
      "ሓ": 1986,
      "ሕ": 1987,
      "መ": 1988,
      "ሚ": 1989,
      "ማ": 1990,
      "ሜ": 1991,
      "ም": 1992,
      "ሞ": 1993,
      "ሣ": 1994,
      "ሥ": 1995,
      "ረ": 1996,
      "ሪ": 1997,
      "ራ": 1998,
      "ሬ": 1999,
      "ር": 2000,
      "ሮ": 2001,
      "ሰ": 2002,
      "ሱ": 2003,
      "ሲ": 2004,
      "ሳ": 2005,
      "ሴ": 2006,
      "ስ": 2007,
      "ሶ": 2008,
      "ሻ": 2009,
      "ሽ": 2010,
      "ቀ": 2011,
      "ቂ": 2012,
      "ቅ": 2013,
      "ቆ": 2014,
      "ቐ": 2015,
      "ቕ": 2016,
      "በ": 2017,
      "ቡ": 2018,
      "ቢ": 2019,
      "ባ": 2020,
      "ቤ": 2021,
      "ብ": 2022,
      "ቦ": 2023,
      "ቨ": 2024,
      "ተ": 2025,
      "ቱ": 2026,
      "ቲ": 2027,
      "ታ": 2028,
      "ቴ": 2029,
      "ት": 2030,
      "ቶ": 2031,
      "ቺ": 2032,
      "ች": 2033,
      "ኅ": 2034,
      "ነ": 2035,
      "ኑ": 2036,
      "ኒ": 2037,
      "ና": 2038,
      "ኔ": 2039,
      "ን": 2040,
      "ኖ": 2041,
      "ኛ": 2042,
      "ኝ": 2043,
      "አ": 2044,
      "ኢ": 2045,
      "ኣ": 2046,
      "ኤ": 2047,
      "እ": 2048,
      "ከ": 2049,
      "ኩ": 2050,
      "ኪ": 2051,
      "ካ": 2052,
      "ክ": 2053,
      "ኰ": 2054,
      "ኺ": 2055,
      "ዃ": 2056,
      "ወ": 2057,
      "ዊ": 2058,
      "ዋ": 2059,
      "ው": 2060,
      "ዎ": 2061,
      "ዑ": 2062,
      "ዓ": 2063,
      "ዕ": 2064,
      "ዘ": 2065,
      "ዛ": 2066,
      "ዜ": 2067,
      "ዝ": 2068,
      "የ": 2069,
      "ዩ": 2070,
      "ያ": 2071,
      "ይ": 2072,
      "ዮ": 2073,
      "ደ": 2074,
      "ዲ": 2075,
      "ዳ": 2076,
      "ድ": 2077,
      "ጀ": 2078,
      "ጃ": 2079,
      "ገ": 2080,
      "ጉ": 2081,
      "ጋ": 2082,
      "ግ": 2083,
      "ጐ": 2084,
      "ጠ": 2085,
      "ጣ": 2086,
      "ጥ": 2087,
      "ጨ": 2088,
      "ጳ": 2089,
      "ጵ": 2090,
      "ጹ": 2091,
      "ጻ": 2092,
      "ጽ": 2093,
      "ፀ": 2094,
      "ፃ": 2095,
      "ፅ": 2096,
      "ፈ": 2097,
      "ፊ": 2098,
      "ፋ": 2099,
      "ፍ": 2100,
      "ፐ": 2101,
      "፡": 2102,
      "።": 2103,
      "፧": 2104,
      "Ꭰ": 2105,
      "Ꭹ": 2106,
      "Ꭻ": 2107,
      "Ꮃ": 2108,
      "Ꮒ": 2109,
      "Ꮤ": 2110,
      "Ꮳ": 2111,
      "ᐃ": 2112,
      "ᐅ": 2113,
      "ᐊ": 2114,
      "ᐱ": 2115,
      "ᑎ": 2116,
      "ᑐ": 2117,
      "ᑕ": 2118,
      "ᑦ": 2119,
      "ᑭ": 2120,
      "ᑲ": 2121,
      "ᒃ": 2122,
      "ᒐ": 2123,
      "ᒑ": 2124,
      "ᒪ": 2125,
      "ᓂ": 2126,
      "ᓄ": 2127,
      "ᓕ": 2128,
      "ᓗ": 2129,
      "ᔪ": 2130,
      "ᕐ": 2131,
      "ᕙ": 2132,
      "ᕿ": 2133,
      "ᖅ": 2134,
      "ᖏ": 2135,
      "ᖓ": 2136,
      "ᖠ": 2137,
      "ᙵ": 2138,
      "ᚠ": 2139,
      "ᚢ": 2140,
      "ᚦ": 2141,
      "ᚩ": 2142,
      "ᚪ": 2143,
      "ᚫ": 2144,
      "ᚱ": 2145,
      "ᚲ": 2146,
      "ᚳ": 2147,
      "ᚹ": 2148,
      "ᚻ": 2149,
      "ᚾ": 2150,
      "ᛁ": 2151,
      "ᛇ": 2152,
      "ᛏ": 2153,
      "ᛒ": 2154,
      "ᛖ": 2155,
      "ᛗ": 2156,
      "ᛘ": 2157,
      "ᛚ": 2158,
      "ᛞ": 2159,
      "ᛟ": 2160,
      "ᛥ": 2161,
      "ក": 2162,
      "ខ": 2163,
      "គ": 2164,
      "ឃ": 2165,
      "ង": 2166,
      "ច": 2167,
      "ឆ": 2168,
      "ជ": 2169,
      "ឈ": 2170,
      "ញ": 2171,
      "ដ": 2172,
      "ឋ": 2173,
      "ឌ": 2174,
      "ឍ": 2175,
      "ណ": 2176,
      "ត": 2177,
      "ថ": 2178,
      "ទ": 2179,
      "ធ": 2180,
      "ន": 2181,
      "ប": 2182,
      "ផ": 2183,
      "ព": 2184,
      "ភ": 2185,
      "ម": 2186,
      "យ": 2187,
      "រ": 2188,
      "ល": 2189,
      "វ": 2190,
      "ឝ": 2191,
      "ឞ": 2192,
      "ស": 2193,
      "ហ": 2194,
      "ឡ": 2195,
      "អ": 2196,
      "ឱ": 2197,
      "ា": 2198,
      "ិ": 2199,
      "ី": 2200,
      "ឹ": 2201,
      "ឺ": 2202,
      "ុ": 2203,
      "ូ": 2204,
      "ួ": 2205,
      "ើ": 2206,
      "ឿ": 2207,
      "ៀ": 2208,
      "េ": 2209,
      "ែ": 2210,
      "ៃ": 2211,
      "ោ": 2212,
      "ៅ": 2213,
      "ំ": 2214,
      "ះ": 2215,
      "៉": 2216,
      "់": 2217,
      "្": 2218,
      "៛": 2219,
      "᠋": 2220,
      "᠌": 2221,
      "ᠠ": 2222,
      "ᠡ": 2223,
      "ᠤ": 2224,
      "ᠦ": 2225,
      "ᠨ": 2226,
      "ᠩ": 2227,
      "ᠪ": 2228,
      "ᠬ": 2229,
      "ᠭ": 2230,
      "ᠮ": 2231,
      "ᠯ": 2232,
      "ᠰ": 2233,
      "ᠲ": 2234,
      "ᠳ": 2235,
      "ᠵ": 2236,
      "ᠷ": 2237,
      "ᠸ": 2238,
      "ᡝ": 2239,
      "ᡠ": 2240,
      "ᡤ": 2241,
      "ᡥ": 2242,
      "ᡩ": 2243,
      "ᡳ": 2244,
      "ᡴ": 2245,
      "ᡵ": 2246,
      "ᡶ": 2247,
      "ᤌ": 2248,
      "ᤐ": 2249,
      "ᤕ": 2250,
      "ᤠ": 2251,
      "ᤢ": 2252,
      "ᤰ": 2253,
      "ᤱ": 2254,
      "ᤴ": 2255,
      "ᥖ": 2256,
      "ᥘ": 2257,
      "ᥫ": 2258,
      "ᥭ": 2259,
      "ᥰ": 2260,
      "ᥴ": 2261,
      "ᦑ": 2262,
      "ᦟ": 2263,
      "ᦹ": 2264,
      "ᧉ": 2265,
      "ᨈ": 2266,
      "ᨑ": 2267,
      "ᨒ": 2268,
      "ᨚ": 2269,
      "ᬩ": 2270,
      "ᬮ": 2271,
      "ᬶ": 2272,
      "ᮀ": 2273,
      "ᮁ": 2274,
      "ᮂ": 2275,
      "ᮃ": 2276,
      "ᮊ": 2277,
      "ᮓ": 2278,
      "ᮔ": 2279,
      "ᮛ": 2280,
      "ᮞ": 2281,
      "ᮡ": 2282,
      "ᮢ": 2283,
      "ᮣ": 2284,
      "ᮤ": 2285,
      "ᮥ": 2286,
      "ᮦ": 2287,
      "ᮧ": 2288,
      "ᮨ": 2289,
      "ᮩ": 2290,
      "᮪": 2291,
      "ᯂ": 2292,
      "ᯅ": 2293,
      "ᯖ": 2294,
      "᯲": 2295,
      "ᰛ": 2296,
      "ᰜ": 2297,
      "ᰣ": 2298,
      "ᰤ": 2299,
      "ᰥ": 2300,
      "ᰦ": 2301,
      "ᰧ": 2302,
      "ᰨ": 2303,
      "ᰩ": 2304,
      "ᰪ": 2305,
      "ᰫ": 2306,
      "ᰬ": 2307,
      "ᰭ": 2308,
      "ᰮ": 2309,
      "ᰯ": 2310,
      "ᰰ": 2311,
      "ᰱ": 2312,
      "ᰲ": 2313,
      "ᰳ": 2314,
      "ᰴ": 2315,
      "ᰵ": 2316,
      "ᰶ": 2317,
      "ᱟ": 2318,
      "ᱤ": 2319,
      "ᱨ": 2320,
      "ᱪ": 2321,
      "ᱺ": 2322,
      "ᴅ": 2323,
      "ᴐ": 2324,
      "ᴑ": 2325,
      "ᴓ": 2326,
      "ᴙ": 2327,
      "ᴢ": 2328,
      "ᴤ": 2329,
      "ᴫ": 2330,
      "ᵃ": 2331,
      "ᵇ": 2332,
      "ᵈ": 2333,
      "ᵉ": 2334,
      "ᵍ": 2335,
      "ᵏ": 2336,
      "ᵐ": 2337,
      "ᵑ": 2338,
      "ᵒ": 2339,
      "ᵖ": 2340,
      "ᵗ": 2341,
      "ᵘ": 2342,
      "ᵢ": 2343,
      "ᵤ": 2344,
      "ᵻ": 2345,
      "ᶜ": 2346,
      "ᶠ": 2347,
      "ᶡ": 2348,
      "ᶢ": 2349,
      "ᶤ": 2350,
      "ᶫ": 2351,
      "ᶮ": 2352,
      "ᶯ": 2353,
      "ᶰ": 2354,
      "ḇ": 2355,
      "Ḉ": 2356,
      "ḉ": 2357,
      "Ḍ": 2358,
      "ḍ": 2359,
      "Ḏ": 2360,
      "ḏ": 2361,
      "Ḑ": 2362,
      "ḑ": 2363,
      "ḓ": 2364,
      "Ḕ": 2365,
      "ḕ": 2366,
      "Ḗ": 2367,
      "ḗ": 2368,
      "ḙ": 2369,
      "ḛ": 2370,
      "Ḡ": 2371,
      "ḡ": 2372,
      "ḣ": 2373,
      "Ḥ": 2374,
      "ḥ": 2375,
      "Ḧ": 2376,
      "Ḩ": 2377,
      "ḩ": 2378,
      "Ḫ": 2379,
      "ḫ": 2380,
      "ḭ": 2381,
      "Ḯ": 2382,
      "ḯ": 2383,
      "Ḱ": 2384,
      "ḱ": 2385,
      "Ḳ": 2386,
      "ḳ": 2387,
      "Ḵ": 2388,
      "ḵ": 2389,
      "ḷ": 2390,
      "ḻ": 2391,
      "ḽ": 2392,
      "Ḿ": 2393,
      "ḿ": 2394,
      "Ṁ": 2395,
      "ṁ": 2396,
      "ṃ": 2397,
      "ṅ": 2398,
      "ṇ": 2399,
      "ṉ": 2400,
      "Ṍ": 2401,
      "ṍ": 2402,
      "Ṑ": 2403,
      "ṑ": 2404,
      "Ṓ": 2405,
      "ṓ": 2406,
      "Ṕ": 2407,
      "ṕ": 2408,
      "ṙ": 2409,
      "Ṛ": 2410,
      "ṛ": 2411,
      "ṟ": 2412,
      "Ṣ": 2413,
      "ṣ": 2414,
      "Ṥ": 2415,
      "ṥ": 2416,
      "ṧ": 2417,
      "ṫ": 2418,
      "Ṭ": 2419,
      "ṭ": 2420,
      "Ṯ": 2421,
      "ṯ": 2422,
      "ṳ": 2423,
      "ṷ": 2424,
      "Ṹ": 2425,
      "ṹ": 2426,
      "ṿ": 2427,
      "Ẁ": 2428,
      "ẁ": 2429,
      "Ẃ": 2430,
      "ẃ": 2431,
      "ẅ": 2432,
      "Ẋ": 2433,
      "ẋ": 2434,
      "ẏ": 2435,
      "Ẑ": 2436,
      "ẑ": 2437,
      "Ẓ": 2438,
      "ẓ": 2439,
      "ẕ": 2440,
      "ẖ": 2441,
      "ẗ": 2442,
      "ẞ": 2443,
      "Ạ": 2444,
      "ạ": 2445,
      "Ả": 2446,
      "ả": 2447,
      "Ấ": 2448,
      "ấ": 2449,
      "Ầ": 2450,
      "ầ": 2451,
      "Ẩ": 2452,
      "ẩ": 2453,
      "ẫ": 2454,
      "ậ": 2455,
      "Ắ": 2456,
      "ắ": 2457,
      "Ằ": 2458,
      "ằ": 2459,
      "ẵ": 2460,
      "ặ": 2461,
      "Ẹ": 2462,
      "ẹ": 2463,
      "ẻ": 2464,
      "ẽ": 2465,
      "Ế": 2466,
      "ế": 2467,
      "Ề": 2468,
      "ề": 2469,
      "ể": 2470,
      "ễ": 2471,
      "Ệ": 2472,
      "ệ": 2473,
      "ỉ": 2474,
      "Ị": 2475,
      "ị": 2476,
      "Ọ": 2477,
      "ọ": 2478,
      "ỏ": 2479,
      "Ố": 2480,
      "ố": 2481,
      "Ồ": 2482,
      "ồ": 2483,
      "ổ": 2484,
      "ỗ": 2485,
      "ộ": 2486,
      "Ớ": 2487,
      "ớ": 2488,
      "Ờ": 2489,
      "ờ": 2490,
      "ở": 2491,
      "ợ": 2492,
      "ụ": 2493,
      "ủ": 2494,
      "Ứ": 2495,
      "ứ": 2496,
      "Ừ": 2497,
      "ừ": 2498,
      "ử": 2499,
      "ữ": 2500,
      "ự": 2501,
      "Ỳ": 2502,
      "ỳ": 2503,
      "ỵ": 2504,
      "ỷ": 2505,
      "ỹ": 2506,
      "ἀ": 2507,
      "ἁ": 2508,
      "ἂ": 2509,
      "ἃ": 2510,
      "ἄ": 2511,
      "ἅ": 2512,
      "Ἀ": 2513,
      "Ἁ": 2514,
      "Ἂ": 2515,
      "Ἃ": 2516,
      "Ἄ": 2517,
      "Ἅ": 2518,
      "ἐ": 2519,
      "ἑ": 2520,
      "ἒ": 2521,
      "ἓ": 2522,
      "ἔ": 2523,
      "ἕ": 2524,
      "Ἐ": 2525,
      "Ἑ": 2526,
      "Ἒ": 2527,
      "Ἓ": 2528,
      "Ἔ": 2529,
      "Ἕ": 2530,
      "ἠ": 2531,
      "ἡ": 2532,
      "ἢ": 2533,
      "ἣ": 2534,
      "ἤ": 2535,
      "ἦ": 2536,
      "ἧ": 2537,
      "Ἠ": 2538,
      "Ἢ": 2539,
      "Ἣ": 2540,
      "ἰ": 2541,
      "ἱ": 2542,
      "ἲ": 2543,
      "ἳ": 2544,
      "ἴ": 2545,
      "ἵ": 2546,
      "ἶ": 2547,
      "ἷ": 2548,
      "Ἰ": 2549,
      "Ἱ": 2550,
      "Ἲ": 2551,
      "Ἳ": 2552,
      "Ἴ": 2553,
      "Ἶ": 2554,
      "ὀ": 2555,
      "ὁ": 2556,
      "ὂ": 2557,
      "ὃ": 2558,
      "ὄ": 2559,
      "ὅ": 2560,
      "Ὀ": 2561,
      "Ὁ": 2562,
      "Ὂ": 2563,
      "Ὃ": 2564,
      "Ὄ": 2565,
      "Ὅ": 2566,
      "ὐ": 2567,
      "ὑ": 2568,
      "ὒ": 2569,
      "ὓ": 2570,
      "ὔ": 2571,
      "ὕ": 2572,
      "ὖ": 2573,
      "Ὑ": 2574,
      "Ὓ": 2575,
      "ὠ": 2576,
      "ὡ": 2577,
      "ὢ": 2578,
      "ὣ": 2579,
      "ὤ": 2580,
      "ὥ": 2581,
      "Ὠ": 2582,
      "Ὢ": 2583,
      "Ὣ": 2584,
      "ὰ": 2585,
      "ὲ": 2586,
      "ὴ": 2587,
      "ὶ": 2588,
      "ὸ": 2589,
      "ὺ": 2590,
      "ὼ": 2591,
      "ᾂ": 2592,
      "ᾃ": 2593,
      "ᾊ": 2594,
      "ᾋ": 2595,
      "ᾒ": 2596,
      "ᾓ": 2597,
      "ᾚ": 2598,
      "ᾛ": 2599,
      "ᾠ": 2600,
      "ᾢ": 2601,
      "ᾣ": 2602,
      "ᾪ": 2603,
      "ᾫ": 2604,
      "ᾱ": 2605,
      "ᾲ": 2606,
      "ᾳ": 2607,
      "ᾶ": 2608,
      "ᾷ": 2609,
      "Ὰ": 2610,
      "᾽": 2611,
      "ῂ": 2612,
      "ῃ": 2613,
      "ῆ": 2614,
      "ῇ": 2615,
      "Ὲ": 2616,
      "Ὴ": 2617,
      "ῑ": 2618,
      "ῒ": 2619,
      "ῖ": 2620,
      "Ὶ": 2621,
      "ῠ": 2622,
      "ῢ": 2623,
      "ῤ": 2624,
      "ῥ": 2625,
      "ῦ": 2626,
      "Ὺ": 2627,
      "Ῥ": 2628,
      "ῲ": 2629,
      "ῳ": 2630,
      "ῶ": 2631,
      "ῷ": 2632,
      "Ὸ": 2633,
      "Ὼ": 2634,
      "῾": 2635,
      "​": 2636,
      "‌": 2637,
      "‍": 2638,
      "‎": 2639,
      "‏": 2640,
      "‐": 2641,
      "‑": 2642,
      "‒": 2643,
      "–": 2644,
      "—": 2645,
      "―": 2646,
      "‘": 2647,
      "’": 2648,
      "‚": 2649,
      "“": 2650,
      "”": 2651,
      "„": 2652,
      "†": 2653,
      "‡": 2654,
      "•": 2655,
      "…": 2656,
      "‪": 2657,
      "‬": 2658,
      "‭": 2659,
      "‰": 2660,
      "‱": 2661,
      "′": 2662,
      "″": 2663,
      "‴": 2664,
      "‹": 2665,
      "›": 2666,
      "‿": 2667,
      "⁄": 2668,
      "⁗": 2669,
      "⁙": 2670,
      "⁚": 2671,
      "⁠": 2672,
      "⁰": 2673,
      "⁴": 2674,
      "⁶": 2675,
      "⁷": 2676,
      "⁸": 2677,
      "⁹": 2678,
      "⁻": 2679,
      "ⁿ": 2680,
      "₀": 2681,
      "₁": 2682,
      "₂": 2683,
      "₃": 2684,
      "₄": 2685,
      "₆": 2686,
      "₇": 2687,
      "₋": 2688,
      "₍": 2689,
      "ₐ": 2690,
      "ₑ": 2691,
      "ₒ": 2692,
      "₠": 2693,
      "₡": 2694,
      "₢": 2695,
      "₣": 2696,
      "₤": 2697,
      "₦": 2698,
      "₨": 2699,
      "₩": 2700,
      "₪": 2701,
      "€": 2702,
      "₯": 2703,
      "₱": 2704,
      "₸": 2705,
      "₹": 2706,
      "₽": 2707,
      "₿": 2708,
      "ℂ": 2709,
      "℃": 2710,
      "℅": 2711,
      "ℏ": 2712,
      "ℒ": 2713,
      "ℓ": 2714,
      "ℕ": 2715,
      "№": 2716,
      "℗": 2717,
      "ℚ": 2718,
      "ℛ": 2719,
      "ℝ": 2720,
      "℞": 2721,
      "™": 2722,
      "ℤ": 2723,
      "℧": 2724,
      "ℳ": 2725,
      "⅓": 2726,
      "⅔": 2727,
      "⅛": 2728,
      "⅜": 2729,
      "⅝": 2730,
      "Ⅰ": 2731,
      "Ⅱ": 2732,
      "Ⅲ": 2733,
      "Ⅳ": 2734,
      "←": 2735,
      "↑": 2736,
      "→": 2737,
      "↓": 2738,
      "↔": 2739,
      "↗": 2740,
      "↵": 2741,
      "⇄": 2742,
      "⇌": 2743,
      "⇒": 2744,
      "⇔": 2745,
      "⇥": 2746,
      "⇧": 2747,
      "∀": 2748,
      "∂": 2749,
      "∃": 2750,
      "∅": 2751,
      "∆": 2752,
      "∇": 2753,
      "∈": 2754,
      "∉": 2755,
      "∑": 2756,
      "−": 2757,
      "∗": 2758,
      "∘": 2759,
      "∙": 2760,
      "√": 2761,
      "∝": 2762,
      "∞": 2763,
      "∧": 2764,
      "∨": 2765,
      "∩": 2766,
      "∪": 2767,
      "∫": 2768,
      "∴": 2769,
      "∶": 2770,
      "∼": 2771,
      "≅": 2772,
      "≈": 2773,
      "≠": 2774,
      "≡": 2775,
      "≢": 2776,
      "≤": 2777,
      "≥": 2778,
      "≦": 2779,
      "≧": 2780,
      "≪": 2781,
      "≫": 2782,
      "⊂": 2783,
      "⊆": 2784,
      "⊇": 2785,
      "⊕": 2786,
      "⊻": 2787,
      "⋅": 2788,
      "⌀": 2789,
      "⌈": 2790,
      "⌉": 2791,
      "⌊": 2792,
      "⌋": 2793,
      "⌘": 2794,
      "⍳": 2795,
      "⎓": 2796,
      "⎕": 2797,
      "①": 2798,
      "②": 2799,
      "④": 2800,
      "⑤": 2801,
      "⑪": 2802,
      "⑮": 2803,
      "Ⓐ": 2804,
      "─": 2805,
      "━": 2806,
      "│": 2807,
      "└": 2808,
      "├": 2809,
      "┤": 2810,
      "┬": 2811,
      "╲": 2812,
      "╳": 2813,
      "█": 2814,
      "■": 2815,
      "□": 2816,
      "▲": 2817,
      "△": 2818,
      "○": 2819,
      "◌": 2820,
      "●": 2821,
      "◦": 2822,
      "◯": 2823,
      "★": 2824,
      "☆": 2825,
      "☉": 2826,
      "☣": 2827,
      "☦": 2828,
      "☧": 2829,
      "☭": 2830,
      "☮": 2831,
      "☯": 2832,
      "☰": 2833,
      "☱": 2834,
      "☲": 2835,
      "☳": 2836,
      "☴": 2837,
      "☵": 2838,
      "☶": 2839,
      "☷": 2840,
      "☺": 2841,
      "☾": 2842,
      "☿": 2843,
      "♀": 2844,
      "♂": 2845,
      "♃": 2846,
      "♄": 2847,
      "♅": 2848,
      "♆": 2849,
      "♇": 2850,
      "♓": 2851,
      "♔": 2852,
      "♙": 2853,
      "♠": 2854,
      "♡": 2855,
      "♣": 2856,
      "♥": 2857,
      "♦": 2858,
      "♩": 2859,
      "♪": 2860,
      "♫": 2861,
      "♬": 2862,
      "♭": 2863,
      "♮": 2864,
      "♯": 2865,
      "♿": 2866,
      "⚊": 2867,
      "⚋": 2868,
      "⚛": 2869,
      "⚢": 2870,
      "⚣": 2871,
      "⚨": 2872,
      "⚳": 2873,
      "⚴": 2874,
      "⚵": 2875,
      "⚶": 2876,
      "⚷": 2877,
      "⛎": 2878,
      "✓": 2879,
      "✔": 2880,
      "✕": 2881,
      "✝": 2882,
      "✡": 2883,
      "✢": 2884,
      "✯": 2885,
      "❤": 2886,
      "⟨": 2887,
      "⟩": 2888,
      "⩾": 2889,
      "⬅": 2890,
      "⯚": 2891,
      "⯰": 2892,
      "⯲": 2893,
      "Ⰿ": 2894,
      "ⰰ": 2895,
      "ⰲ": 2896,
      "ⰳ": 2897,
      "ⰴ": 2898,
      "ⰸ": 2899,
      "ⰹ": 2900,
      "ⰽ": 2901,
      "ⰾ": 2902,
      "ⰿ": 2903,
      "ⱀ": 2904,
      "ⱁ": 2905,
      "ⱂ": 2906,
      "ⱃ": 2907,
      "ⱄ": 2908,
      "ⱆ": 2909,
      "ⱏ": 2910,
      "ⱨ": 2911,
      "ⱪ": 2912,
      "ⱱ": 2913,
      "Ⲁ": 2914,
      "ⲁ": 2915,
      "ⲃ": 2916,
      "ⲇ": 2917,
      "ⲉ": 2918,
      "ⲏ": 2919,
      "Ⲑ": 2920,
      "ⲓ": 2921,
      "Ⲕ": 2922,
      "ⲙ": 2923,
      "ⲛ": 2924,
      "ⲟ": 2925,
      "Ⲡ": 2926,
      "ⲡ": 2927,
      "ⲣ": 2928,
      "ⲥ": 2929,
      "Ⲧ": 2930,
      "ⲧ": 2931,
      "ⲩ": 2932,
      "ⲱ": 2933,
      "Ⳉ": 2934,
      "ⳉ": 2935,
      "ⴀ": 2936,
      "ⴁ": 2937,
      "ⴂ": 2938,
      "ⴃ": 2939,
      "ⴄ": 2940,
      "ⴆ": 2941,
      "ⴇ": 2942,
      "ⴈ": 2943,
      "ⴉ": 2944,
      "ⴊ": 2945,
      "ⴋ": 2946,
      "ⴌ": 2947,
      "ⴍ": 2948,
      "ⴎ": 2949,
      "ⴏ": 2950,
      "ⴐ": 2951,
      "ⴑ": 2952,
      "ⴒ": 2953,
      "ⴓ": 2954,
      "ⴔ": 2955,
      "ⴕ": 2956,
      "ⴖ": 2957,
      "ⴗ": 2958,
      "ⴘ": 2959,
      "ⴙ": 2960,
      "ⴚ": 2961,
      "ⴛ": 2962,
      "ⴜ": 2963,
      "ⴝ": 2964,
      "ⴞ": 2965,
      "ⴟ": 2966,
      "ⴠ": 2967,
      "ⴣ": 2968,
      "ⴰ": 2969,
      "ⴱ": 2970,
      "ⴳ": 2971,
      "ⴷ": 2972,
      "ⴹ": 2973,
      "ⴻ": 2974,
      "ⴼ": 2975,
      "ⴽ": 2976,
      "ⵀ": 2977,
      "ⵇ": 2978,
      "ⵉ": 2979,
      "ⵍ": 2980,
      "ⵎ": 2981,
      "ⵏ": 2982,
      "ⵓ": 2983,
      "ⵔ": 2984,
      "ⵕ": 2985,
      "ⵖ": 2986,
      "ⵙ": 2987,
      "ⵚ": 2988,
      "ⵛ": 2989,
      "ⵜ": 2990,
      "ⵡ": 2991,
      "ⵢ": 2992,
      "ⵣ": 2993,
      "、": 2994,
      "。": 2995,
      "々": 2996,
      "〇": 2997,
      "〈": 2998,
      "〉": 2999,
      "《": 3000,
      "》": 3001,
      "「": 3002,
      "」": 3003,
      "『": 3004,
      "』": 3005,
      "【": 3006,
      "】": 3007,
      "〔": 3008,
      "〕": 3009,
      "〖": 3010,
      "〗": 3011,
      "〘": 3012,
      "〙": 3013,
      "〚": 3014,
      "〛": 3015,
      "〜": 3016,
      "〡": 3017,
      "〢": 3018,
      "〣": 3019,
      "〤": 3020,
      "〥": 3021,
      "〦": 3022,
      "〧": 3023,
      "〨": 3024,
      "〩": 3025,
      "ぁ": 3026,
      "あ": 3027,
      "ぃ": 3028,
      "い": 3029,
      "う": 3030,
      "ぇ": 3031,
      "え": 3032,
      "ぉ": 3033,
      "お": 3034,
      "か": 3035,
      "が": 3036,
      "き": 3037,
      "ぎ": 3038,
      "く": 3039,
      "ぐ": 3040,
      "け": 3041,
      "げ": 3042,
      "こ": 3043,
      "ご": 3044,
      "さ": 3045,
      "ざ": 3046,
      "し": 3047,
      "じ": 3048,
      "す": 3049,
      "ず": 3050,
      "せ": 3051,
      "ぜ": 3052,
      "そ": 3053,
      "ぞ": 3054,
      "た": 3055,
      "だ": 3056,
      "ち": 3057,
      "ぢ": 3058,
      "っ": 3059,
      "つ": 3060,
      "づ": 3061,
      "て": 3062,
      "で": 3063,
      "と": 3064,
      "ど": 3065,
      "な": 3066,
      "に": 3067,
      "ぬ": 3068,
      "ね": 3069,
      "の": 3070,
      "は": 3071,
      "ば": 3072,
      "ぱ": 3073,
      "ひ": 3074,
      "び": 3075,
      "ぴ": 3076,
      "ふ": 3077,
      "ぶ": 3078,
      "ぷ": 3079,
      "へ": 3080,
      "べ": 3081,
      "ぺ": 3082,
      "ほ": 3083,
      "ぼ": 3084,
      "ぽ": 3085,
      "ま": 3086,
      "み": 3087,
      "む": 3088,
      "め": 3089,
      "も": 3090,
      "ゃ": 3091,
      "や": 3092,
      "ゅ": 3093,
      "ゆ": 3094,
      "ょ": 3095,
      "よ": 3096,
      "ら": 3097,
      "り": 3098,
      "る": 3099,
      "れ": 3100,
      "ろ": 3101,
      "ゎ": 3102,
      "わ": 3103,
      "ゐ": 3104,
      "ゑ": 3105,
      "を": 3106,
      "ん": 3107,
      "゛": 3108,
      "゜": 3109,
      "ゝ": 3110,
      "ゞ": 3111,
      "ァ": 3112,
      "ア": 3113,
      "ィ": 3114,
      "イ": 3115,
      "ゥ": 3116,
      "ウ": 3117,
      "ェ": 3118,
      "エ": 3119,
      "ォ": 3120,
      "オ": 3121,
      "カ": 3122,
      "ガ": 3123,
      "キ": 3124,
      "ギ": 3125,
      "ク": 3126,
      "グ": 3127,
      "ケ": 3128,
      "ゲ": 3129,
      "コ": 3130,
      "ゴ": 3131,
      "サ": 3132,
      "ザ": 3133,
      "シ": 3134,
      "ジ": 3135,
      "ス": 3136,
      "ズ": 3137,
      "セ": 3138,
      "ゼ": 3139,
      "ソ": 3140,
      "ゾ": 3141,
      "タ": 3142,
      "ダ": 3143,
      "チ": 3144,
      "ヂ": 3145,
      "ッ": 3146,
      "ツ": 3147,
      "ヅ": 3148,
      "テ": 3149,
      "デ": 3150,
      "ト": 3151,
      "ド": 3152,
      "ナ": 3153,
      "ニ": 3154,
      "ヌ": 3155,
      "ネ": 3156,
      "ノ": 3157,
      "ハ": 3158,
      "バ": 3159,
      "パ": 3160,
      "ヒ": 3161,
      "ビ": 3162,
      "ピ": 3163,
      "フ": 3164,
      "ブ": 3165,
      "プ": 3166,
      "ヘ": 3167,
      "ベ": 3168,
      "ペ": 3169,
      "ホ": 3170,
      "ボ": 3171,
      "ポ": 3172,
      "マ": 3173,
      "ミ": 3174,
      "ム": 3175,
      "メ": 3176,
      "モ": 3177,
      "ャ": 3178,
      "ヤ": 3179,
      "ュ": 3180,
      "ユ": 3181,
      "ョ": 3182,
      "ヨ": 3183,
      "ラ": 3184,
      "リ": 3185,
      "ル": 3186,
      "レ": 3187,
      "ロ": 3188,
      "ワ": 3189,
      "ヰ": 3190,
      "ヱ": 3191,
      "ヲ": 3192,
      "ン": 3193,
      "ヴ": 3194,
      "ヵ": 3195,
      "ヶ": 3196,
      "・": 3197,
      "ー": 3198,
      "ㄅ": 3199,
      "ㄆ": 3200,
      "ㄇ": 3201,
      "ㄈ": 3202,
      "ㄍ": 3203,
      "ㄎ": 3204,
      "ㄏ": 3205,
      "ㄐ": 3206,
      "ㄑ": 3207,
      "ㄒ": 3208,
      "ㄴ": 3209,
      "ㄷ": 3210,
      "ㄹ": 3211,
      "ㅁ": 3212,
      "ㅂ": 3213,
      "ㅃ": 3214,
      "ㅅ": 3215,
      "ㅇ": 3216,
      "ㅊ": 3217,
      "ㅌ": 3218,
      "ㅍ": 3219,
      "ㅏ": 3220,
      "ㅐ": 3221,
      "ㅑ": 3222,
      "ㅓ": 3223,
      "ㅗ": 3224,
      "ㅘ": 3225,
      "ㅣ": 3226,
      "ㇰ": 3227,
      "㜲": 3228,
      "䄉": 3229,
      "䄔": 3230,
      "一": 3231,
      "丁": 3232,
      "七": 3233,
      "万": 3234,
      "丈": 3235,
      "三": 3236,
      "上": 3237,
      "下": 3238,
      "不": 3239,
      "与": 3240,
      "丐": 3241,
      "且": 3242,
      "世": 3243,
      "丘": 3244,
      "丙": 3245,
      "业": 3246,
      "丛": 3247,
      "东": 3248,
      "丝": 3249,
      "丞": 3250,
      "両": 3251,
      "丢": 3252,
      "两": 3253,
      "严": 3254,
      "並": 3255,
      "个": 3256,
      "中": 3257,
      "丰": 3258,
      "串": 3259,
      "临": 3260,
      "丸": 3261,
      "丹": 3262,
      "为": 3263,
      "主": 3264,
      "丽": 3265,
      "乂": 3266,
      "乃": 3267,
      "久": 3268,
      "义": 3269,
      "之": 3270,
      "乌": 3271,
      "乍": 3272,
      "乎": 3273,
      "乏": 3274,
      "乐": 3275,
      "乗": 3276,
      "乙": 3277,
      "九": 3278,
      "乞": 3279,
      "也": 3280,
      "习": 3281,
      "乡": 3282,
      "书": 3283,
      "买": 3284,
      "乱": 3285,
      "乳": 3286,
      "乾": 3287,
      "亀": 3288,
      "亂": 3289,
      "了": 3290,
      "予": 3291,
      "争": 3292,
      "事": 3293,
      "二": 3294,
      "于": 3295,
      "云": 3296,
      "互": 3297,
      "五": 3298,
      "井": 3299,
      "亘": 3300,
      "亚": 3301,
      "些": 3302,
      "亜": 3303,
      "亞": 3304,
      "亡": 3305,
      "亢": 3306,
      "交": 3307,
      "亥": 3308,
      "亦": 3309,
      "产": 3310,
      "亨": 3311,
      "享": 3312,
      "京": 3313,
      "亭": 3314,
      "亮": 3315,
      "亲": 3316,
      "亳": 3317,
      "亶": 3318,
      "人": 3319,
      "亻": 3320,
      "什": 3321,
      "仁": 3322,
      "仄": 3323,
      "仆": 3324,
      "仇": 3325,
      "今": 3326,
      "介": 3327,
      "从": 3328,
      "仏": 3329,
      "仑": 3330,
      "仓": 3331,
      "仔": 3332,
      "仕": 3333,
      "他": 3334,
      "付": 3335,
      "仙": 3336,
      "代": 3337,
      "令": 3338,
      "以": 3339,
      "仪": 3340,
      "仫": 3341,
      "们": 3342,
      "仮": 3343,
      "仰": 3344,
      "仲": 3345,
      "件": 3346,
      "价": 3347,
      "任": 3348,
      "份": 3349,
      "企": 3350,
      "伊": 3351,
      "伋": 3352,
      "伍": 3353,
      "伎": 3354,
      "伏": 3355,
      "休": 3356,
      "众": 3357,
      "会": 3358,
      "伝": 3359,
      "伟": 3360,
      "传": 3361,
      "伦": 3362,
      "伪": 3363,
      "伯": 3364,
      "伴": 3365,
      "伶": 3366,
      "伸": 3367,
      "似": 3368,
      "伽": 3369,
      "佃": 3370,
      "但": 3371,
      "位": 3372,
      "住": 3373,
      "佐": 3374,
      "佑": 3375,
      "体": 3376,
      "佔": 3377,
      "何": 3378,
      "佗": 3379,
      "余": 3380,
      "佚": 3381,
      "佛": 3382,
      "作": 3383,
      "佟": 3384,
      "你": 3385,
      "佤": 3386,
      "佬": 3387,
      "佳": 3388,
      "佶": 3389,
      "使": 3390,
      "來": 3391,
      "侍": 3392,
      "侑": 3393,
      "侗": 3394,
      "侘": 3395,
      "供": 3396,
      "依": 3397,
      "侠": 3398,
      "侧": 3399,
      "侨": 3400,
      "侮": 3401,
      "侯": 3402,
      "侵": 3403,
      "便": 3404,
      "係": 3405,
      "促": 3406,
      "俄": 3407,
      "俊": 3408,
      "俎": 3409,
      "俑": 3410,
      "俗": 3411,
      "保": 3412,
      "俞": 3413,
      "俠": 3414,
      "信": 3415,
      "俣": 3416,
      "修": 3417,
      "俱": 3418,
      "俳": 3419,
      "俵": 3420,
      "俶": 3421,
      "俺": 3422,
      "倉": 3423,
      "個": 3424,
      "倍": 3425,
      "們": 3426,
      "倒": 3427,
      "倖": 3428,
      "倘": 3429,
      "候": 3430,
      "借": 3431,
      "倧": 3432,
      "倩": 3433,
      "倫": 3434,
      "倭": 3435,
      "倶": 3436,
      "倻": 3437,
      "值": 3438,
      "假": 3439,
      "偉": 3440,
      "偏": 3441,
      "做": 3442,
      "健": 3443,
      "側": 3444,
      "偵": 3445,
      "偶": 3446,
      "偷": 3447,
      "偸": 3448,
      "偽": 3449,
      "傀": 3450,
      "傅": 3451,
      "傍": 3452,
      "傑": 3453,
      "備": 3454,
      "傣": 3455,
      "储": 3456,
      "傲": 3457,
      "傳": 3458,
      "傷": 3459,
      "働": 3460,
      "像": 3461,
      "僕": 3462,
      "僖": 3463,
      "僧": 3464,
      "儀": 3465,
      "億": 3466,
      "儇": 3467,
      "儉": 3468,
      "儋": 3469,
      "儒": 3470,
      "儚": 3471,
      "儡": 3472,
      "優": 3473,
      "儿": 3474,
      "允": 3475,
      "元": 3476,
      "兄": 3477,
      "充": 3478,
      "兆": 3479,
      "先": 3480,
      "光": 3481,
      "克": 3482,
      "兌": 3483,
      "免": 3484,
      "兎": 3485,
      "児": 3486,
      "兒": 3487,
      "兔": 3488,
      "党": 3489,
      "入": 3490,
      "內": 3491,
      "全": 3492,
      "兩": 3493,
      "兪": 3494,
      "八": 3495,
      "公": 3496,
      "六": 3497,
      "兮": 3498,
      "兰": 3499,
      "共": 3500,
      "关": 3501,
      "兴": 3502,
      "兵": 3503,
      "其": 3504,
      "具": 3505,
      "典": 3506,
      "养": 3507,
      "兼": 3508,
      "冀": 3509,
      "内": 3510,
      "円": 3511,
      "冈": 3512,
      "冊": 3513,
      "册": 3514,
      "再": 3515,
      "冑": 3516,
      "冒": 3517,
      "冕": 3518,
      "写": 3519,
      "军": 3520,
      "农": 3521,
      "冠": 3522,
      "冥": 3523,
      "冨": 3524,
      "冬": 3525,
      "冲": 3526,
      "决": 3527,
      "冴": 3528,
      "况": 3529,
      "冶": 3530,
      "冷": 3531,
      "净": 3532,
      "准": 3533,
      "凈": 3534,
      "凉": 3535,
      "凌": 3536,
      "凍": 3537,
      "凛": 3538,
      "几": 3539,
      "凤": 3540,
      "処": 3541,
      "凪": 3542,
      "凭": 3543,
      "凯": 3544,
      "凰": 3545,
      "凱": 3546,
      "凶": 3547,
      "出": 3548,
      "函": 3549,
      "刀": 3550,
      "刁": 3551,
      "刃": 3552,
      "分": 3553,
      "切": 3554,
      "刈": 3555,
      "刊": 3556,
      "刑": 3557,
      "列": 3558,
      "刘": 3559,
      "则": 3560,
      "初": 3561,
      "判": 3562,
      "別": 3563,
      "利": 3564,
      "别": 3565,
      "刮": 3566,
      "到": 3567,
      "制": 3568,
      "券": 3569,
      "刹": 3570,
      "刺": 3571,
      "刻": 3572,
      "則": 3573,
      "削": 3574,
      "剌": 3575,
      "前": 3576,
      "剑": 3577,
      "剛": 3578,
      "剣": 3579,
      "剧": 3580,
      "副": 3581,
      "割": 3582,
      "劃": 3583,
      "劇": 3584,
      "劉": 3585,
      "劍": 3586,
      "劔": 3587,
      "力": 3588,
      "劝": 3589,
      "办": 3590,
      "功": 3591,
      "加": 3592,
      "务": 3593,
      "劣": 3594,
      "动": 3595,
      "助": 3596,
      "劫": 3597,
      "劳": 3598,
      "労": 3599,
      "勃": 3600,
      "勇": 3601,
      "勉": 3602,
      "勐": 3603,
      "勒": 3604,
      "動": 3605,
      "勗": 3606,
      "勘": 3607,
      "務": 3608,
      "勝": 3609,
      "勞": 3610,
      "勢": 3611,
      "勤": 3612,
      "勧": 3613,
      "勰": 3614,
      "勲": 3615,
      "匀": 3616,
      "匁": 3617,
      "匂": 3618,
      "包": 3619,
      "化": 3620,
      "北": 3621,
      "匠": 3622,
      "匡": 3623,
      "匪": 3624,
      "匮": 3625,
      "匹": 3626,
      "区": 3627,
      "医": 3628,
      "區": 3629,
      "十": 3630,
      "千": 3631,
      "升": 3632,
      "午": 3633,
      "半": 3634,
      "卍": 3635,
      "华": 3636,
      "协": 3637,
      "卐": 3638,
      "卑": 3639,
      "卒": 3640,
      "卓": 3641,
      "協": 3642,
      "南": 3643,
      "単": 3644,
      "博": 3645,
      "卜": 3646,
      "卡": 3647,
      "卢": 3648,
      "卦": 3649,
      "卫": 3650,
      "卯": 3651,
      "印": 3652,
      "危": 3653,
      "即": 3654,
      "却": 3655,
      "卷": 3656,
      "卻": 3657,
      "卿": 3658,
      "厂": 3659,
      "厄": 3660,
      "厅": 3661,
      "历": 3662,
      "厉": 3663,
      "厚": 3664,
      "厝": 3665,
      "原": 3666,
      "厢": 3667,
      "厥": 3668,
      "厦": 3669,
      "厪": 3670,
      "厭": 3671,
      "厲": 3672,
      "厳": 3673,
      "去": 3674,
      "县": 3675,
      "叁": 3676,
      "参": 3677,
      "參": 3678,
      "叄": 3679,
      "又": 3680,
      "叉": 3681,
      "及": 3682,
      "友": 3683,
      "双": 3684,
      "反": 3685,
      "収": 3686,
      "发": 3687,
      "叔": 3688,
      "取": 3689,
      "受": 3690,
      "变": 3691,
      "叙": 3692,
      "叛": 3693,
      "叟": 3694,
      "叠": 3695,
      "叡": 3696,
      "口": 3697,
      "古": 3698,
      "句": 3699,
      "叨": 3700,
      "叩": 3701,
      "只": 3702,
      "叫": 3703,
      "召": 3704,
      "叭": 3705,
      "可": 3706,
      "台": 3707,
      "史": 3708,
      "右": 3709,
      "叶": 3710,
      "号": 3711,
      "司": 3712,
      "吃": 3713,
      "各": 3714,
      "合": 3715,
      "吉": 3716,
      "吊": 3717,
      "同": 3718,
      "名": 3719,
      "后": 3720,
      "吏": 3721,
      "吐": 3722,
      "向": 3723,
      "吕": 3724,
      "吗": 3725,
      "君": 3726,
      "吞": 3727,
      "吟": 3728,
      "吠": 3729,
      "否": 3730,
      "吧": 3731,
      "听": 3732,
      "启": 3733,
      "吳": 3734,
      "吴": 3735,
      "吸": 3736,
      "吹": 3737,
      "吻": 3738,
      "吼": 3739,
      "吽": 3740,
      "吾": 3741,
      "呀": 3742,
      "呂": 3743,
      "呆": 3744,
      "呈": 3745,
      "呉": 3746,
      "告": 3747,
      "员": 3748,
      "呢": 3749,
      "周": 3750,
      "呪": 3751,
      "味": 3752,
      "呼": 3753,
      "命": 3754,
      "咄": 3755,
      "和": 3756,
      "咎": 3757,
      "咏": 3758,
      "咒": 3759,
      "咖": 3760,
      "咥": 3761,
      "咨": 3762,
      "咪": 3763,
      "咰": 3764,
      "咲": 3765,
      "咸": 3766,
      "哀": 3767,
      "品": 3768,
      "哈": 3769,
      "哉": 3770,
      "哟": 3771,
      "員": 3772,
      "哥": 3773,
      "哨": 3774,
      "哪": 3775,
      "哭": 3776,
      "哲": 3777,
      "唄": 3778,
      "唇": 3779,
      "唐": 3780,
      "唔": 3781,
      "唯": 3782,
      "唱": 3783,
      "唵": 3784,
      "商": 3785,
      "啊": 3786,
      "問": 3787,
      "啓": 3788,
      "啟": 3789,
      "啡": 3790,
      "啤": 3791,
      "啲": 3792,
      "啸": 3793,
      "喀": 3794,
      "喃": 3795,
      "善": 3796,
      "喇": 3797,
      "喉": 3798,
      "喜": 3799,
      "喧": 3800,
      "喫": 3801,
      "喬": 3802,
      "單": 3803,
      "喰": 3804,
      "喺": 3805,
      "喻": 3806,
      "嗎": 3807,
      "嗑": 3808,
      "嗚": 3809,
      "嗣": 3810,
      "嗨": 3811,
      "嘆": 3812,
      "嘉": 3813,
      "嘎": 3814,
      "嘗": 3815,
      "嘘": 3816,
      "嘛": 3817,
      "嘩": 3818,
      "嘯": 3819,
      "嘴": 3820,
      "噂": 3821,
      "噌": 3822,
      "噛": 3823,
      "器": 3824,
      "噬": 3825,
      "噴": 3826,
      "噶": 3827,
      "噺": 3828,
      "嚟": 3829,
      "嚣": 3830,
      "嚳": 3831,
      "嚴": 3832,
      "囁": 3833,
      "囃": 3834,
      "囊": 3835,
      "囏": 3836,
      "囚": 3837,
      "四": 3838,
      "回": 3839,
      "因": 3840,
      "团": 3841,
      "団": 3842,
      "园": 3843,
      "囲": 3844,
      "図": 3845,
      "围": 3846,
      "固": 3847,
      "国": 3848,
      "图": 3849,
      "圆": 3850,
      "圈": 3851,
      "國": 3852,
      "圍": 3853,
      "圏": 3854,
      "園": 3855,
      "圓": 3856,
      "圖": 3857,
      "團": 3858,
      "土": 3859,
      "圣": 3860,
      "在": 3861,
      "圭": 3862,
      "地": 3863,
      "圳": 3864,
      "场": 3865,
      "圻": 3866,
      "址": 3867,
      "坂": 3868,
      "均": 3869,
      "坊": 3870,
      "坎": 3871,
      "坐": 3872,
      "坑": 3873,
      "块": 3874,
      "坛": 3875,
      "坝": 3876,
      "坞": 3877,
      "坡": 3878,
      "坤": 3879,
      "坨": 3880,
      "坪": 3881,
      "坮": 3882,
      "垂": 3883,
      "垈": 3884,
      "型": 3885,
      "垍": 3886,
      "垕": 3887,
      "垠": 3888,
      "垣": 3889,
      "垦": 3890,
      "垫": 3891,
      "埇": 3892,
      "埈": 3893,
      "埋": 3894,
      "城": 3895,
      "埏": 3896,
      "埔": 3897,
      "域": 3898,
      "埠": 3899,
      "執": 3900,
      "基": 3901,
      "埼": 3902,
      "堀": 3903,
      "堂": 3904,
      "堅": 3905,
      "堆": 3906,
      "堈": 3907,
      "堕": 3908,
      "堡": 3909,
      "堪": 3910,
      "堯": 3911,
      "堰": 3912,
      "報": 3913,
      "場": 3914,
      "堵": 3915,
      "堺": 3916,
      "塁": 3917,
      "塊": 3918,
      "塏": 3919,
      "塔": 3920,
      "塗": 3921,
      "塘": 3922,
      "塚": 3923,
      "塞": 3924,
      "塢": 3925,
      "塩": 3926,
      "塹": 3927,
      "塾": 3928,
      "墀": 3929,
      "境": 3930,
      "墅": 3931,
      "墉": 3932,
      "墓": 3933,
      "増": 3934,
      "墙": 3935,
      "增": 3936,
      "墟": 3937,
      "墡": 3938,
      "墨": 3939,
      "墩": 3940,
      "墺": 3941,
      "壁": 3942,
      "壇": 3943,
      "壊": 3944,
      "壓": 3945,
      "壕": 3946,
      "壘": 3947,
      "壡": 3948,
      "壤": 3949,
      "士": 3950,
      "壬": 3951,
      "壮": 3952,
      "壯": 3953,
      "声": 3954,
      "壱": 3955,
      "売": 3956,
      "壶": 3957,
      "壷": 3958,
      "壹": 3959,
      "壽": 3960,
      "处": 3961,
      "备": 3962,
      "変": 3963,
      "复": 3964,
      "夏": 3965,
      "夔": 3966,
      "夕": 3967,
      "外": 3968,
      "夙": 3969,
      "多": 3970,
      "夜": 3971,
      "夢": 3972,
      "大": 3973,
      "天": 3974,
      "太": 3975,
      "夫": 3976,
      "央": 3977,
      "失": 3978,
      "头": 3979,
      "夷": 3980,
      "夹": 3981,
      "奇": 3982,
      "奈": 3983,
      "奉": 3984,
      "奎": 3985,
      "奏": 3986,
      "契": 3987,
      "奔": 3988,
      "奕": 3989,
      "奖": 3990,
      "奘": 3991,
      "奚": 3992,
      "奥": 3993,
      "奩": 3994,
      "奪": 3995,
      "奮": 3996,
      "女": 3997,
      "奴": 3998,
      "奶": 3999,
      "她": 4000,
      "好": 4001,
      "如": 4002,
      "妃": 4003,
      "妄": 4004,
      "妈": 4005,
      "妍": 4006,
      "妓": 4007,
      "妖": 4008,
      "妙": 4009,
      "妤": 4010,
      "妬": 4011,
      "妮": 4012,
      "妯": 4013,
      "妱": 4014,
      "妹": 4015,
      "妻": 4016,
      "妾": 4017,
      "姃": 4018,
      "姆": 4019,
      "姉": 4020,
      "始": 4021,
      "姐": 4022,
      "姑": 4023,
      "姓": 4024,
      "委": 4025,
      "姚": 4026,
      "姜": 4027,
      "姫": 4028,
      "姬": 4029,
      "姮": 4030,
      "威": 4031,
      "娃": 4032,
      "娄": 4033,
      "娇": 4034,
      "娌": 4035,
      "娘": 4036,
      "娜": 4037,
      "娟": 4038,
      "娥": 4039,
      "娱": 4040,
      "娼": 4041,
      "婆": 4042,
      "婉": 4043,
      "婕": 4044,
      "婚": 4045,
      "婢": 4046,
      "婦": 4047,
      "婧": 4048,
      "婺": 4049,
      "媒": 4050,
      "媔": 4051,
      "媖": 4052,
      "媛": 4053,
      "媜": 4054,
      "媞": 4055,
      "媧": 4056,
      "媼": 4057,
      "媽": 4058,
      "嫁": 4059,
      "嫃": 4060,
      "嫉": 4061,
      "嫌": 4062,
      "嫙": 4063,
      "嫦": 4064,
      "嫩": 4065,
      "嫫": 4066,
      "嬉": 4067,
      "嬢": 4068,
      "嬪": 4069,
      "嬫": 4070,
      "嬰": 4071,
      "嬴": 4072,
      "子": 4073,
      "孑": 4074,
      "孒": 4075,
      "孔": 4076,
      "字": 4077,
      "存": 4078,
      "孙": 4079,
      "孚": 4080,
      "孜": 4081,
      "孝": 4082,
      "孟": 4083,
      "季": 4084,
      "孤": 4085,
      "学": 4086,
      "孩": 4087,
      "孫": 4088,
      "孰": 4089,
      "學": 4090,
      "宁": 4091,
      "宅": 4092,
      "宇": 4093,
      "守": 4094,
      "安": 4095,
      "宋": 4096,
      "完": 4097,
      "宏": 4098,
      "宕": 4099,
      "宗": 4100,
      "官": 4101,
      "宙": 4102,
      "定": 4103,
      "宛": 4104,
      "宜": 4105,
      "宝": 4106,
      "实": 4107,
      "実": 4108,
      "审": 4109,
      "客": 4110,
      "宣": 4111,
      "室": 4112,
      "宥": 4113,
      "宫": 4114,
      "宮": 4115,
      "宰": 4116,
      "宴": 4117,
      "宵": 4118,
      "家": 4119,
      "宸": 4120,
      "容": 4121,
      "宽": 4122,
      "宾": 4123,
      "宿": 4124,
      "寀": 4125,
      "寂": 4126,
      "寄": 4127,
      "寅": 4128,
      "密": 4129,
      "富": 4130,
      "寒": 4131,
      "寛": 4132,
      "寝": 4133,
      "察": 4134,
      "實": 4135,
      "寧": 4136,
      "寨": 4137,
      "審": 4138,
      "寶": 4139,
      "寸": 4140,
      "对": 4141,
      "寺": 4142,
      "寻": 4143,
      "导": 4144,
      "対": 4145,
      "寿": 4146,
      "封": 4147,
      "専": 4148,
      "射": 4149,
      "将": 4150,
      "將": 4151,
      "專": 4152,
      "尉": 4153,
      "尊": 4154,
      "尋": 4155,
      "對": 4156,
      "小": 4157,
      "少": 4158,
      "尔": 4159,
      "尖": 4160,
      "尚": 4161,
      "尤": 4162,
      "尧": 4163,
      "就": 4164,
      "尹": 4165,
      "尺": 4166,
      "尻": 4167,
      "尼": 4168,
      "尽": 4169,
      "尾": 4170,
      "局": 4171,
      "层": 4172,
      "居": 4173,
      "屈": 4174,
      "届": 4175,
      "屋": 4176,
      "屏": 4177,
      "展": 4178,
      "属": 4179,
      "層": 4180,
      "履": 4181,
      "屬": 4182,
      "屯": 4183,
      "山": 4184,
      "屿": 4185,
      "岁": 4186,
      "岐": 4187,
      "岑": 4188,
      "岔": 4189,
      "岗": 4190,
      "岚": 4191,
      "岛": 4192,
      "岡": 4193,
      "岢": 4194,
      "岩": 4195,
      "岫": 4196,
      "岬": 4197,
      "岭": 4198,
      "岱": 4199,
      "岳": 4200,
      "岷": 4201,
      "岸": 4202,
      "峒": 4203,
      "峙": 4204,
      "峠": 4205,
      "峡": 4206,
      "峦": 4207,
      "峨": 4208,
      "峪": 4209,
      "峯": 4210,
      "峰": 4211,
      "峴": 4212,
      "島": 4213,
      "峻": 4214,
      "峽": 4215,
      "崆": 4216,
      "崇": 4217,
      "崎": 4218,
      "崑": 4219,
      "崔": 4220,
      "崖": 4221,
      "崗": 4222,
      "崙": 4223,
      "崧": 4224,
      "崱": 4225,
      "嵇": 4226,
      "嵊": 4227,
      "嵐": 4228,
      "嵩": 4229,
      "嵬": 4230,
      "嶋": 4231,
      "嶺": 4232,
      "嶽": 4233,
      "巌": 4234,
      "巒": 4235,
      "巖": 4236,
      "川": 4237,
      "州": 4238,
      "巡": 4239,
      "巢": 4240,
      "巣": 4241,
      "工": 4242,
      "左": 4243,
      "巧": 4244,
      "巨": 4245,
      "巩": 4246,
      "巫": 4247,
      "差": 4248,
      "己": 4249,
      "已": 4250,
      "巳": 4251,
      "巴": 4252,
      "巻": 4253,
      "巽": 4254,
      "市": 4255,
      "布": 4256,
      "帆": 4257,
      "师": 4258,
      "希": 4259,
      "帕": 4260,
      "帖": 4261,
      "帛": 4262,
      "帝": 4263,
      "帥": 4264,
      "带": 4265,
      "帧": 4266,
      "師": 4267,
      "席": 4268,
      "帯": 4269,
      "帰": 4270,
      "帳": 4271,
      "帶": 4272,
      "常": 4273,
      "帽": 4274,
      "幅": 4275,
      "幕": 4276,
      "幡": 4277,
      "幬": 4278,
      "干": 4279,
      "平": 4280,
      "年": 4281,
      "幸": 4282,
      "幹": 4283,
      "幻": 4284,
      "幼": 4285,
      "幽": 4286,
      "幾": 4287,
      "广": 4288,
      "庁": 4289,
      "広": 4290,
      "庄": 4291,
      "庆": 4292,
      "床": 4293,
      "序": 4294,
      "庐": 4295,
      "库": 4296,
      "应": 4297,
      "底": 4298,
      "店": 4299,
      "庙": 4300,
      "庚": 4301,
      "府": 4302,
      "度": 4303,
      "座": 4304,
      "庫": 4305,
      "庭": 4306,
      "庵": 4307,
      "庶": 4308,
      "康": 4309,
      "庸": 4310,
      "廃": 4311,
      "廈": 4312,
      "廉": 4313,
      "廊": 4314,
      "廓": 4315,
      "廖": 4316,
      "廚": 4317,
      "廟": 4318,
      "廢": 4319,
      "廣": 4320,
      "廩": 4321,
      "廳": 4322,
      "延": 4323,
      "廷": 4324,
      "建": 4325,
      "廻": 4326,
      "开": 4327,
      "弁": 4328,
      "弄": 4329,
      "弉": 4330,
      "弋": 4331,
      "式": 4332,
      "弐": 4333,
      "弓": 4334,
      "弔": 4335,
      "引": 4336,
      "弗": 4337,
      "弘": 4338,
      "弟": 4339,
      "张": 4340,
      "弥": 4341,
      "弦": 4342,
      "弧": 4343,
      "弩": 4344,
      "張": 4345,
      "強": 4346,
      "强": 4347,
      "弼": 4348,
      "弾": 4349,
      "彈": 4350,
      "彌": 4351,
      "归": 4352,
      "当": 4353,
      "录": 4354,
      "彖": 4355,
      "彗": 4356,
      "彙": 4357,
      "彝": 4358,
      "彡": 4359,
      "形": 4360,
      "彤": 4361,
      "彥": 4362,
      "彦": 4363,
      "彧": 4364,
      "彩": 4365,
      "彪": 4366,
      "彬": 4367,
      "彭": 4368,
      "彰": 4369,
      "影": 4370,
      "役": 4371,
      "彼": 4372,
      "往": 4373,
      "征": 4374,
      "待": 4375,
      "律": 4376,
      "後": 4377,
      "徐": 4378,
      "徒": 4379,
      "得": 4380,
      "從": 4381,
      "御": 4382,
      "復": 4383,
      "循": 4384,
      "微": 4385,
      "徳": 4386,
      "德": 4387,
      "徹": 4388,
      "徽": 4389,
      "心": 4390,
      "必": 4391,
      "忍": 4392,
      "志": 4393,
      "忘": 4394,
      "応": 4395,
      "忠": 4396,
      "快": 4397,
      "忱": 4398,
      "念": 4399,
      "忻": 4400,
      "忽": 4401,
      "怀": 4402,
      "怒": 4403,
      "怖": 4404,
      "思": 4405,
      "怡": 4406,
      "急": 4407,
      "性": 4408,
      "怨": 4409,
      "怪": 4410,
      "总": 4411,
      "恂": 4412,
      "恆": 4413,
      "恋": 4414,
      "恐": 4415,
      "恒": 4416,
      "恨": 4417,
      "恩": 4418,
      "恪": 4419,
      "恬": 4420,
      "恭": 4421,
      "息": 4422,
      "恵": 4423,
      "悉": 4424,
      "悊": 4425,
      "悍": 4426,
      "悔": 4427,
      "悟": 4428,
      "悠": 4429,
      "患": 4430,
      "悦": 4431,
      "悩": 4432,
      "悪": 4433,
      "悬": 4434,
      "悲": 4435,
      "悼": 4436,
      "情": 4437,
      "惇": 4438,
      "惊": 4439,
      "惑": 4440,
      "惜": 4441,
      "惠": 4442,
      "惡": 4443,
      "惨": 4444,
      "想": 4445,
      "愁": 4446,
      "愉": 4447,
      "愍": 4448,
      "意": 4449,
      "愚": 4450,
      "愛": 4451,
      "感": 4452,
      "愨": 4453,
      "愷": 4454,
      "愿": 4455,
      "慈": 4456,
      "態": 4457,
      "慎": 4458,
      "慑": 4459,
      "慕": 4460,
      "慢": 4461,
      "慤": 4462,
      "慥": 4463,
      "慧": 4464,
      "慮": 4465,
      "慶": 4466,
      "慾": 4467,
      "憂": 4468,
      "憎": 4469,
      "憐": 4470,
      "憫": 4471,
      "憲": 4472,
      "憶": 4473,
      "懂": 4474,
      "懈": 4475,
      "應": 4476,
      "懋": 4477,
      "懐": 4478,
      "懒": 4479,
      "懷": 4480,
      "懸": 4481,
      "懺": 4482,
      "懿": 4483,
      "戀": 4484,
      "戈": 4485,
      "戊": 4486,
      "戎": 4487,
      "戏": 4488,
      "成": 4489,
      "我": 4490,
      "戒": 4491,
      "战": 4492,
      "戟": 4493,
      "戦": 4494,
      "截": 4495,
      "戮": 4496,
      "戯": 4497,
      "戰": 4498,
      "戲": 4499,
      "戴": 4500,
      "戶": 4501,
      "户": 4502,
      "戸": 4503,
      "戻": 4504,
      "房": 4505,
      "所": 4506,
      "扁": 4507,
      "扃": 4508,
      "扇": 4509,
      "扈": 4510,
      "扉": 4511,
      "手": 4512,
      "才": 4513,
      "扎": 4514,
      "打": 4515,
      "払": 4516,
      "托": 4517,
      "执": 4518,
      "扬": 4519,
      "扶": 4520,
      "承": 4521,
      "技": 4522,
      "抄": 4523,
      "把": 4524,
      "投": 4525,
      "抗": 4526,
      "折": 4527,
      "抚": 4528,
      "択": 4529,
      "护": 4530,
      "报": 4531,
      "披": 4532,
      "抬": 4533,
      "抱": 4534,
      "抹": 4535,
      "押": 4536,
      "拂": 4537,
      "拉": 4538,
      "拍": 4539,
      "拏": 4540,
      "拒": 4541,
      "拓": 4542,
      "拔": 4543,
      "拖": 4544,
      "招": 4545,
      "拜": 4546,
      "拝": 4547,
      "拠": 4548,
      "括": 4549,
      "拱": 4550,
      "拳": 4551,
      "拼": 4552,
      "拽": 4553,
      "拾": 4554,
      "拿": 4555,
      "持": 4556,
      "指": 4557,
      "按": 4558,
      "挑": 4559,
      "挙": 4560,
      "挪": 4561,
      "振": 4562,
      "挽": 4563,
      "捕": 4564,
      "捜": 4565,
      "捣": 4566,
      "捧": 4567,
      "捶": 4568,
      "捷": 4569,
      "掇": 4570,
      "授": 4571,
      "掌": 4572,
      "排": 4573,
      "掖": 4574,
      "掛": 4575,
      "掟": 4576,
      "採": 4577,
      "探": 4578,
      "接": 4579,
      "控": 4580,
      "推": 4581,
      "措": 4582,
      "揆": 4583,
      "描": 4584,
      "提": 4585,
      "插": 4586,
      "揚": 4587,
      "握": 4588,
      "揭": 4589,
      "揮": 4590,
      "援": 4591,
      "揺": 4592,
      "損": 4593,
      "搖": 4594,
      "搗": 4595,
      "摄": 4596,
      "摇": 4597,
      "摔": 4598,
      "摘": 4599,
      "摩": 4600,
      "摶": 4601,
      "摸": 4602,
      "撃": 4603,
      "撒": 4604,
      "撥": 4605,
      "撫": 4606,
      "播": 4607,
      "撰": 4608,
      "撲": 4609,
      "擁": 4610,
      "擂": 4611,
      "擊": 4612,
      "操": 4613,
      "擠": 4614,
      "擦": 4615,
      "擲": 4616,
      "擴": 4617,
      "攀": 4618,
      "攘": 4619,
      "攝": 4620,
      "攢": 4621,
      "支": 4622,
      "收": 4623,
      "攸": 4624,
      "改": 4625,
      "攻": 4626,
      "放": 4627,
      "政": 4628,
      "故": 4629,
      "效": 4630,
      "敌": 4631,
      "敎": 4632,
      "敏": 4633,
      "救": 4634,
      "敖": 4635,
      "敗": 4636,
      "敘": 4637,
      "教": 4638,
      "敢": 4639,
      "散": 4640,
      "敦": 4641,
      "敬": 4642,
      "数": 4643,
      "敵": 4644,
      "敷": 4645,
      "數": 4646,
      "文": 4647,
      "斉": 4648,
      "斎": 4649,
      "斐": 4650,
      "斑": 4651,
      "斗": 4652,
      "料": 4653,
      "斛": 4654,
      "斜": 4655,
      "斡": 4656,
      "斧": 4657,
      "斬": 4658,
      "断": 4659,
      "斯": 4660,
      "新": 4661,
      "方": 4662,
      "於": 4663,
      "施": 4664,
      "旅": 4665,
      "旋": 4666,
      "旌": 4667,
      "族": 4668,
      "旗": 4669,
      "旛": 4670,
      "无": 4671,
      "既": 4672,
      "日": 4673,
      "旦": 4674,
      "旧": 4675,
      "早": 4676,
      "旬": 4677,
      "旭": 4678,
      "旱": 4679,
      "时": 4680,
      "旺": 4681,
      "旻": 4682,
      "昀": 4683,
      "昂": 4684,
      "昆": 4685,
      "昇": 4686,
      "昊": 4687,
      "昌": 4688,
      "明": 4689,
      "昏": 4690,
      "易": 4691,
      "昔": 4692,
      "昕": 4693,
      "星": 4694,
      "映": 4695,
      "春": 4696,
      "昧": 4697,
      "昨": 4698,
      "昭": 4699,
      "是": 4700,
      "昱": 4701,
      "昴": 4702,
      "昶": 4703,
      "昺": 4704,
      "昼": 4705,
      "显": 4706,
      "時": 4707,
      "晃": 4708,
      "晉": 4709,
      "晋": 4710,
      "晏": 4711,
      "晒": 4712,
      "晓": 4713,
      "晚": 4714,
      "晟": 4715,
      "晩": 4716,
      "普": 4717,
      "景": 4718,
      "晴": 4719,
      "晶": 4720,
      "智": 4721,
      "暁": 4722,
      "暇": 4723,
      "暈": 4724,
      "暑": 4725,
      "暖": 4726,
      "暗": 4727,
      "暦": 4728,
      "暫": 4729,
      "暮": 4730,
      "暴": 4731,
      "曄": 4732,
      "曆": 4733,
      "曉": 4734,
      "曙": 4735,
      "曜": 4736,
      "曰": 4737,
      "曲": 4738,
      "曳": 4739,
      "書": 4740,
      "曹": 4741,
      "曼": 4742,
      "曽": 4743,
      "曾": 4744,
      "替": 4745,
      "最": 4746,
      "會": 4747,
      "月": 4748,
      "有": 4749,
      "朋": 4750,
      "服": 4751,
      "朔": 4752,
      "朗": 4753,
      "望": 4754,
      "朝": 4755,
      "期": 4756,
      "木": 4757,
      "未": 4758,
      "末": 4759,
      "本": 4760,
      "札": 4761,
      "朮": 4762,
      "术": 4763,
      "朱": 4764,
      "朴": 4765,
      "机": 4766,
      "朽": 4767,
      "杂": 4768,
      "权": 4769,
      "杉": 4770,
      "李": 4771,
      "杏": 4772,
      "材": 4773,
      "村": 4774,
      "杓": 4775,
      "杜": 4776,
      "杞": 4777,
      "束": 4778,
      "杠": 4779,
      "条": 4780,
      "来": 4781,
      "杨": 4782,
      "杭": 4783,
      "杯": 4784,
      "東": 4785,
      "杵": 4786,
      "杻": 4787,
      "杼": 4788,
      "松": 4789,
      "板": 4790,
      "极": 4791,
      "枇": 4792,
      "枋": 4793,
      "枕": 4794,
      "林": 4795,
      "枚": 4796,
      "果": 4797,
      "枝": 4798,
      "枣": 4799,
      "枥": 4800,
      "枫": 4801,
      "枯": 4802,
      "枳": 4803,
      "架": 4804,
      "枸": 4805,
      "柏": 4806,
      "柑": 4807,
      "染": 4808,
      "柔": 4809,
      "柘": 4810,
      "柚": 4811,
      "柞": 4812,
      "查": 4813,
      "柯": 4814,
      "柱": 4815,
      "柳": 4816,
      "柴": 4817,
      "柷": 4818,
      "査": 4819,
      "柿": 4820,
      "栃": 4821,
      "栄": 4822,
      "栅": 4823,
      "栋": 4824,
      "栏": 4825,
      "树": 4826,
      "栖": 4827,
      "栗": 4828,
      "栝": 4829,
      "栞": 4830,
      "校": 4831,
      "栩": 4832,
      "株": 4833,
      "样": 4834,
      "核": 4835,
      "根": 4836,
      "格": 4837,
      "栾": 4838,
      "桁": 4839,
      "桂": 4840,
      "桃": 4841,
      "案": 4842,
      "桌": 4843,
      "桐": 4844,
      "桑": 4845,
      "桓": 4846,
      "桔": 4847,
      "桜": 4848,
      "桥": 4849,
      "桦": 4850,
      "桶": 4851,
      "梁": 4852,
      "梅": 4853,
      "梓": 4854,
      "梛": 4855,
      "條": 4856,
      "梟": 4857,
      "梦": 4858,
      "梧": 4859,
      "梨": 4860,
      "梭": 4861,
      "械": 4862,
      "梵": 4863,
      "梶": 4864,
      "棉": 4865,
      "棋": 4866,
      "棒": 4867,
      "棘": 4868,
      "棚": 4869,
      "棟": 4870,
      "棠": 4871,
      "棣": 4872,
      "森": 4873,
      "棱": 4874,
      "棺": 4875,
      "椊": 4876,
      "植": 4877,
      "椎": 4878,
      "椏": 4879,
      "椒": 4880,
      "検": 4881,
      "椪": 4882,
      "椿": 4883,
      "楊": 4884,
      "楓": 4885,
      "楚": 4886,
      "楞": 4887,
      "楠": 4888,
      "楢": 4889,
      "楫": 4890,
      "業": 4891,
      "楮": 4892,
      "楯": 4893,
      "楳": 4894,
      "極": 4895,
      "楷": 4896,
      "楼": 4897,
      "楽": 4898,
      "榄": 4899,
      "榆": 4900,
      "榊": 4901,
      "榎": 4902,
      "榔": 4903,
      "榕": 4904,
      "榛": 4905,
      "榜": 4906,
      "榠": 4907,
      "榮": 4908,
      "榴": 4909,
      "槃": 4910,
      "構": 4911,
      "槐": 4912,
      "槓": 4913,
      "様": 4914,
      "槻": 4915,
      "槽": 4916,
      "樂": 4917,
      "樅": 4918,
      "樊": 4919,
      "樋": 4920,
      "樓": 4921,
      "樘": 4922,
      "標": 4923,
      "樝": 4924,
      "樞": 4925,
      "樟": 4926,
      "模": 4927,
      "樣": 4928,
      "権": 4929,
      "横": 4930,
      "樵": 4931,
      "樹": 4932,
      "樺": 4933,
      "橋": 4934,
      "橏": 4935,
      "橘": 4936,
      "機": 4937,
      "橫": 4938,
      "橱": 4939,
      "橿": 4940,
      "檀": 4941,
      "檎": 4942,
      "檜": 4943,
      "檢": 4944,
      "檬": 4945,
      "檸": 4946,
      "檻": 4947,
      "櫓": 4948,
      "櫛": 4949,
      "櫻": 4950,
      "權": 4951,
      "欠": 4952,
      "次": 4953,
      "欢": 4954,
      "欣": 4955,
      "欧": 4956,
      "欲": 4957,
      "欽": 4958,
      "歌": 4959,
      "歐": 4960,
      "歡": 4961,
      "止": 4962,
      "正": 4963,
      "此": 4964,
      "步": 4965,
      "武": 4966,
      "歩": 4967,
      "歯": 4968,
      "歲": 4969,
      "歳": 4970,
      "歴": 4971,
      "歷": 4972,
      "歸": 4973,
      "死": 4974,
      "歼": 4975,
      "殊": 4976,
      "残": 4977,
      "殘": 4978,
      "殤": 4979,
      "殪": 4980,
      "殯": 4981,
      "段": 4982,
      "殷": 4983,
      "殺": 4984,
      "殻": 4985,
      "殿": 4986,
      "毅": 4987,
      "毋": 4988,
      "母": 4989,
      "毎": 4990,
      "每": 4991,
      "毒": 4992,
      "毓": 4993,
      "比": 4994,
      "毕": 4995,
      "毗": 4996,
      "毛": 4997,
      "毫": 4998,
      "氏": 4999,
      "民": 5000,
      "气": 5001,
      "気": 5002,
      "氣": 5003,
      "水": 5004,
      "氶": 5005,
      "氷": 5006,
      "永": 5007,
      "汀": 5008,
      "汁": 5009,
      "求": 5010,
      "汇": 5011,
      "汉": 5012,
      "汐": 5013,
      "汕": 5014,
      "汗": 5015,
      "汜": 5016,
      "汝": 5017,
      "江": 5018,
      "池": 5019,
      "汤": 5020,
      "汨": 5021,
      "汪": 5022,
      "汰": 5023,
      "汴": 5024,
      "汶": 5025,
      "決": 5026,
      "汽": 5027,
      "汾": 5028,
      "沁": 5029,
      "沂": 5030,
      "沃": 5031,
      "沅": 5032,
      "沈": 5033,
      "沌": 5034,
      "沐": 5035,
      "沒": 5036,
      "沖": 5037,
      "沙": 5038,
      "沛": 5039,
      "沟": 5040,
      "没": 5041,
      "沢": 5042,
      "沧": 5043,
      "沪": 5044,
      "沫": 5045,
      "沭": 5046,
      "沱": 5047,
      "河": 5048,
      "沸": 5049,
      "油": 5050,
      "治": 5051,
      "沼": 5052,
      "沾": 5053,
      "沿": 5054,
      "況": 5055,
      "泄": 5056,
      "泉": 5057,
      "泊": 5058,
      "法": 5059,
      "泗": 5060,
      "泛": 5061,
      "泡": 5062,
      "波": 5063,
      "泣": 5064,
      "泥": 5065,
      "注": 5066,
      "泰": 5067,
      "泳": 5068,
      "泸": 5069,
      "泽": 5070,
      "泾": 5071,
      "洁": 5072,
      "洋": 5073,
      "洗": 5074,
      "洙": 5075,
      "洚": 5076,
      "洛": 5077,
      "洞": 5078,
      "津": 5079,
      "洩": 5080,
      "洪": 5081,
      "洮": 5082,
      "洱": 5083,
      "洲": 5084,
      "洸": 5085,
      "活": 5086,
      "洼": 5087,
      "派": 5088,
      "流": 5089,
      "浄": 5090,
      "浅": 5091,
      "浈": 5092,
      "浍": 5093,
      "济": 5094,
      "浏": 5095,
      "浑": 5096,
      "浒": 5097,
      "浔": 5098,
      "浙": 5099,
      "浚": 5100,
      "浜": 5101,
      "浦": 5102,
      "浩": 5103,
      "浪": 5104,
      "浮": 5105,
      "浴": 5106,
      "海": 5107,
      "涂": 5108,
      "涅": 5109,
      "消": 5110,
      "涉": 5111,
      "涌": 5112,
      "涙": 5113,
      "涛": 5114,
      "涞": 5115,
      "涟": 5116,
      "涡": 5117,
      "润": 5118,
      "涧": 5119,
      "涪": 5120,
      "涯": 5121,
      "液": 5122,
      "涵": 5123,
      "涼": 5124,
      "涿": 5125,
      "淀": 5126,
      "淄": 5127,
      "淅": 5128,
      "淇": 5129,
      "淑": 5130,
      "淖": 5131,
      "淘": 5132,
      "淚": 5133,
      "淝": 5134,
      "淞": 5135,
      "淡": 5136,
      "淦": 5137,
      "淨": 5138,
      "淫": 5139,
      "淮": 5140,
      "深": 5141,
      "淳": 5142,
      "淵": 5143,
      "混": 5144,
      "淸": 5145,
      "清": 5146,
      "済": 5147,
      "渉": 5148,
      "渊": 5149,
      "渋": 5150,
      "渑": 5151,
      "渓": 5152,
      "渕": 5153,
      "渚": 5154,
      "渝": 5155,
      "渠": 5156,
      "渡": 5157,
      "渣": 5158,
      "渤": 5159,
      "渥": 5160,
      "渦": 5161,
      "温": 5162,
      "渭": 5163,
      "港": 5164,
      "游": 5165,
      "渾": 5166,
      "湊": 5167,
      "湍": 5168,
      "湖": 5169,
      "湘": 5170,
      "湛": 5171,
      "湜": 5172,
      "湟": 5173,
      "湦": 5174,
      "湯": 5175,
      "湾": 5176,
      "湿": 5177,
      "満": 5178,
      "溇": 5179,
      "源": 5180,
      "準": 5181,
      "溜": 5182,
      "溝": 5183,
      "溢": 5184,
      "溥": 5185,
      "溧": 5186,
      "溪": 5187,
      "溫": 5188,
      "溺": 5189,
      "溼": 5190,
      "滁": 5191,
      "滅": 5192,
      "滇": 5193,
      "滋": 5194,
      "滑": 5195,
      "滔": 5196,
      "滕": 5197,
      "滚": 5198,
      "滝": 5199,
      "满": 5200,
      "滦": 5201,
      "滨": 5202,
      "滩": 5203,
      "滬": 5204,
      "滴": 5205,
      "滿": 5206,
      "漁": 5207,
      "漂": 5208,
      "漆": 5209,
      "漏": 5210,
      "漓": 5211,
      "演": 5212,
      "漠": 5213,
      "漢": 5214,
      "漣": 5215,
      "漫": 5216,
      "漬": 5217,
      "漯": 5218,
      "漳": 5219,
      "漸": 5220,
      "漼": 5221,
      "漾": 5222,
      "漿": 5223,
      "潍": 5224,
      "潔": 5225,
      "潘": 5226,
      "潛": 5227,
      "潜": 5228,
      "潞": 5229,
      "潟": 5230,
      "潢": 5231,
      "潤": 5232,
      "潭": 5233,
      "潮": 5234,
      "潰": 5235,
      "潼": 5236,
      "潾": 5237,
      "澄": 5238,
      "澍": 5239,
      "澎": 5240,
      "澗": 5241,
      "澜": 5242,
      "澡": 5243,
      "澤": 5244,
      "澧": 5245,
      "澳": 5246,
      "激": 5247,
      "濁": 5248,
      "濂": 5249,
      "濃": 5250,
      "濟": 5251,
      "濠": 5252,
      "濡": 5253,
      "濤": 5254,
      "濮": 5255,
      "濱": 5256,
      "濼": 5257,
      "瀆": 5258,
      "瀋": 5259,
      "瀑": 5260,
      "瀟": 5261,
      "瀬": 5262,
      "瀾": 5263,
      "灄": 5264,
      "灌": 5265,
      "灑": 5266,
      "灘": 5267,
      "灝": 5268,
      "灣": 5269,
      "火": 5270,
      "灮": 5271,
      "灯": 5272,
      "灰": 5273,
      "灵": 5274,
      "灶": 5275,
      "灸": 5276,
      "災": 5277,
      "灾": 5278,
      "炅": 5279,
      "炆": 5280,
      "炉": 5281,
      "炎": 5282,
      "炒": 5283,
      "炬": 5284,
      "炭": 5285,
      "炮": 5286,
      "炸": 5287,
      "点": 5288,
      "為": 5289,
      "烂": 5290,
      "烈": 5291,
      "烏": 5292,
      "烙": 5293,
      "烛": 5294,
      "烟": 5295,
      "烦": 5296,
      "烫": 5297,
      "烽": 5298,
      "焉": 5299,
      "焚": 5300,
      "無": 5301,
      "焦": 5302,
      "焰": 5303,
      "焴": 5304,
      "然": 5305,
      "焼": 5306,
      "煉": 5307,
      "煌": 5308,
      "煎": 5309,
      "煒": 5310,
      "煙": 5311,
      "煜": 5312,
      "煞": 5313,
      "煤": 5314,
      "煥": 5315,
      "煦": 5316,
      "照": 5317,
      "煬": 5318,
      "熈": 5319,
      "熊": 5320,
      "熒": 5321,
      "熙": 5322,
      "熜": 5323,
      "熟": 5324,
      "熱": 5325,
      "熹": 5326,
      "熾": 5327,
      "燁": 5328,
      "燃": 5329,
      "燈": 5330,
      "燊": 5331,
      "燒": 5332,
      "燕": 5333,
      "營": 5334,
      "燥": 5335,
      "燦": 5336,
      "燧": 5337,
      "燮": 5338,
      "爆": 5339,
      "爔": 5340,
      "爛": 5341,
      "爪": 5342,
      "爭": 5343,
      "爱": 5344,
      "爲": 5345,
      "爵": 5346,
      "父": 5347,
      "爷": 5348,
      "爺": 5349,
      "爻": 5350,
      "爽": 5351,
      "爾": 5352,
      "片": 5353,
      "版": 5354,
      "牌": 5355,
      "牖": 5356,
      "牙": 5357,
      "牛": 5358,
      "牝": 5359,
      "牟": 5360,
      "牡": 5361,
      "牧": 5362,
      "物": 5363,
      "特": 5364,
      "犀": 5365,
      "犍": 5366,
      "犢": 5367,
      "犬": 5368,
      "犭": 5369,
      "犯": 5370,
      "状": 5371,
      "狀": 5372,
      "狂": 5373,
      "狄": 5374,
      "狎": 5375,
      "狐": 5376,
      "狗": 5377,
      "狙": 5378,
      "狛": 5379,
      "狩": 5380,
      "独": 5381,
      "狭": 5382,
      "狮": 5383,
      "狸": 5384,
      "狼": 5385,
      "猇": 5386,
      "猊": 5387,
      "猎": 5388,
      "猛": 5389,
      "猪": 5390,
      "猫": 5391,
      "猬": 5392,
      "献": 5393,
      "猴": 5394,
      "猶": 5395,
      "猿": 5396,
      "獄": 5397,
      "獅": 5398,
      "獣": 5399,
      "獨": 5400,
      "獲": 5401,
      "獵": 5402,
      "獻": 5403,
      "玄": 5404,
      "率": 5405,
      "玉": 5406,
      "王": 5407,
      "玖": 5408,
      "玛": 5409,
      "玟": 5410,
      "玢": 5411,
      "玫": 5412,
      "玮": 5413,
      "环": 5414,
      "现": 5415,
      "玲": 5416,
      "玶": 5417,
      "玷": 5418,
      "珀": 5419,
      "珂": 5420,
      "珅": 5421,
      "珈": 5422,
      "珊": 5423,
      "珍": 5424,
      "珙": 5425,
      "珠": 5426,
      "珣": 5427,
      "班": 5428,
      "珲": 5429,
      "珹": 5430,
      "現": 5431,
      "球": 5432,
      "理": 5433,
      "琉": 5434,
      "琢": 5435,
      "琥": 5436,
      "琦": 5437,
      "琪": 5438,
      "琮": 5439,
      "琰": 5440,
      "琲": 5441,
      "琳": 5442,
      "琴": 5443,
      "琵": 5444,
      "琶": 5445,
      "琼": 5446,
      "瑃": 5447,
      "瑆": 5448,
      "瑕": 5449,
      "瑚": 5450,
      "瑛": 5451,
      "瑜": 5452,
      "瑞": 5453,
      "瑟": 5454,
      "瑠": 5455,
      "瑢": 5456,
      "瑣": 5457,
      "瑪": 5458,
      "瑭": 5459,
      "瑯": 5460,
      "瑱": 5461,
      "瑶": 5462,
      "璂": 5463,
      "璃": 5464,
      "璇": 5465,
      "璉": 5466,
      "璋": 5467,
      "璐": 5468,
      "璘": 5469,
      "璜": 5470,
      "璟": 5471,
      "璣": 5472,
      "璧": 5473,
      "璪": 5474,
      "環": 5475,
      "璷": 5476,
      "璹": 5477,
      "璽": 5478,
      "瓘": 5479,
      "瓜": 5480,
      "瓮": 5481,
      "瓯": 5482,
      "瓶": 5483,
      "甌": 5484,
      "甑": 5485,
      "甕": 5486,
      "甘": 5487,
      "甚": 5488,
      "甜": 5489,
      "生": 5490,
      "産": 5491,
      "甦": 5492,
      "用": 5493,
      "甫": 5494,
      "甬": 5495,
      "田": 5496,
      "由": 5497,
      "甲": 5498,
      "申": 5499,
      "电": 5500,
      "男": 5501,
      "甸": 5502,
      "町": 5503,
      "画": 5504,
      "界": 5505,
      "畑": 5506,
      "畔": 5507,
      "留": 5508,
      "畜": 5509,
      "畝": 5510,
      "略": 5511,
      "番": 5512,
      "畫": 5513,
      "異": 5514,
      "畳": 5515,
      "當": 5516,
      "畿": 5517,
      "疆": 5518,
      "疏": 5519,
      "疑": 5520,
      "疯": 5521,
      "疾": 5522,
      "病": 5523,
      "症": 5524,
      "痒": 5525,
      "痘": 5526,
      "痛": 5527,
      "痧": 5528,
      "瘂": 5529,
      "瘛": 5530,
      "瘟": 5531,
      "瘦": 5532,
      "療": 5533,
      "発": 5534,
      "登": 5535,
      "發": 5536,
      "白": 5537,
      "百": 5538,
      "皂": 5539,
      "的": 5540,
      "皆": 5541,
      "皇": 5542,
      "皋": 5543,
      "皎": 5544,
      "皐": 5545,
      "皞": 5546,
      "皮": 5547,
      "盂": 5548,
      "盆": 5549,
      "盈": 5550,
      "益": 5551,
      "盐": 5552,
      "监": 5553,
      "盖": 5554,
      "盗": 5555,
      "盘": 5556,
      "盛": 5557,
      "盟": 5558,
      "監": 5559,
      "盤": 5560,
      "盧": 5561,
      "目": 5562,
      "盱": 5563,
      "盲": 5564,
      "直": 5565,
      "相": 5566,
      "盼": 5567,
      "盾": 5568,
      "省": 5569,
      "眉": 5570,
      "看": 5571,
      "県": 5572,
      "眚": 5573,
      "眞": 5574,
      "真": 5575,
      "眠": 5576,
      "眩": 5577,
      "眷": 5578,
      "眼": 5579,
      "着": 5580,
      "睛": 5581,
      "睢": 5582,
      "督": 5583,
      "睿": 5584,
      "瞬": 5585,
      "瞳": 5586,
      "瞻": 5587,
      "矢": 5588,
      "知": 5589,
      "短": 5590,
      "石": 5591,
      "矴": 5592,
      "矶": 5593,
      "矿": 5594,
      "砀": 5595,
      "码": 5596,
      "砂": 5597,
      "研": 5598,
      "砕": 5599,
      "砚": 5600,
      "砦": 5601,
      "砭": 5602,
      "砲": 5603,
      "破": 5604,
      "砺": 5605,
      "砻": 5606,
      "硔": 5607,
      "硕": 5608,
      "硚": 5609,
      "硫": 5610,
      "硲": 5611,
      "碁": 5612,
      "碌": 5613,
      "碎": 5614,
      "碑": 5615,
      "碗": 5616,
      "碚": 5617,
      "碧": 5618,
      "碩": 5619,
      "碰": 5620,
      "碱": 5621,
      "確": 5622,
      "碾": 5623,
      "磁": 5624,
      "磐": 5625,
      "磨": 5626,
      "磯": 5627,
      "磻": 5628,
      "礁": 5629,
      "示": 5630,
      "礼": 5631,
      "礽": 5632,
      "社": 5633,
      "祀": 5634,
      "祁": 5635,
      "祄": 5636,
      "祇": 5637,
      "祈": 5638,
      "祉": 5639,
      "祐": 5640,
      "祓": 5641,
      "祕": 5642,
      "祖": 5643,
      "祚": 5644,
      "祜": 5645,
      "祝": 5646,
      "神": 5647,
      "祟": 5648,
      "祠": 5649,
      "祢": 5650,
      "祥": 5651,
      "票": 5652,
      "祭": 5653,
      "祹": 5654,
      "祺": 5655,
      "祿": 5656,
      "禁": 5657,
      "禄": 5658,
      "禅": 5659,
      "禊": 5660,
      "禌": 5661,
      "禎": 5662,
      "福": 5663,
      "禐": 5664,
      "禑": 5665,
      "禔": 5666,
      "禕": 5667,
      "禛": 5668,
      "禝": 5669,
      "禟": 5670,
      "禧": 5671,
      "禨": 5672,
      "禩": 5673,
      "禪": 5674,
      "禮": 5675,
      "禰": 5676,
      "禵": 5677,
      "禶": 5678,
      "禹": 5679,
      "禺": 5680,
      "离": 5681,
      "禽": 5682,
      "禾": 5683,
      "禿": 5684,
      "秀": 5685,
      "私": 5686,
      "秉": 5687,
      "秋": 5688,
      "种": 5689,
      "科": 5690,
      "秒": 5691,
      "秘": 5692,
      "秤": 5693,
      "秦": 5694,
      "秩": 5695,
      "秭": 5696,
      "积": 5697,
      "移": 5698,
      "程": 5699,
      "税": 5700,
      "稔": 5701,
      "稚": 5702,
      "種": 5703,
      "稲": 5704,
      "稷": 5705,
      "稻": 5706,
      "稼": 5707,
      "穀": 5708,
      "穂": 5709,
      "穆": 5710,
      "穌": 5711,
      "積": 5712,
      "穎": 5713,
      "穗": 5714,
      "穢": 5715,
      "穩": 5716,
      "穰": 5717,
      "穴": 5718,
      "究": 5719,
      "穹": 5720,
      "空": 5721,
      "穿": 5722,
      "突": 5723,
      "窃": 5724,
      "窑": 5725,
      "窒": 5726,
      "窓": 5727,
      "窗": 5728,
      "窝": 5729,
      "窟": 5730,
      "窩": 5731,
      "窪": 5732,
      "窮": 5733,
      "窯": 5734,
      "竅": 5735,
      "竇": 5736,
      "竈": 5737,
      "立": 5738,
      "站": 5739,
      "竜": 5740,
      "竟": 5741,
      "章": 5742,
      "童": 5743,
      "竭": 5744,
      "端": 5745,
      "競": 5746,
      "竹": 5747,
      "竺": 5748,
      "竿": 5749,
      "笋": 5750,
      "笏": 5751,
      "笑": 5752,
      "笛": 5753,
      "笠": 5754,
      "符": 5755,
      "第": 5756,
      "笹": 5757,
      "筆": 5758,
      "等": 5759,
      "筊": 5760,
      "筋": 5761,
      "筑": 5762,
      "筒": 5763,
      "答": 5764,
      "策": 5765,
      "筚": 5766,
      "筝": 5767,
      "筠": 5768,
      "简": 5769,
      "箇": 5770,
      "箋": 5771,
      "箏": 5772,
      "箕": 5773,
      "算": 5774,
      "管": 5775,
      "箭": 5776,
      "箱": 5777,
      "節": 5778,
      "範": 5779,
      "篆": 5780,
      "篇": 5781,
      "築": 5782,
      "篠": 5783,
      "篡": 5784,
      "篤": 5785,
      "篥": 5786,
      "篪": 5787,
      "簡": 5788,
      "簽": 5789,
      "簾": 5790,
      "籁": 5791,
      "籍": 5792,
      "籠": 5793,
      "米": 5794,
      "类": 5795,
      "粉": 5796,
      "粟": 5797,
      "粤": 5798,
      "粥": 5799,
      "粧": 5800,
      "粮": 5801,
      "粱": 5802,
      "粵": 5803,
      "粽": 5804,
      "精": 5805,
      "糕": 5806,
      "糖": 5807,
      "糞": 5808,
      "糧": 5809,
      "糸": 5810,
      "糺": 5811,
      "系": 5812,
      "紀": 5813,
      "紂": 5814,
      "約": 5815,
      "紅": 5816,
      "紋": 5817,
      "納": 5818,
      "純": 5819,
      "紗": 5820,
      "紘": 5821,
      "紙": 5822,
      "級": 5823,
      "紛": 5824,
      "素": 5825,
      "索": 5826,
      "紧": 5827,
      "紫": 5828,
      "紬": 5829,
      "細": 5830,
      "紳": 5831,
      "紹": 5832,
      "紺": 5833,
      "終": 5834,
      "組": 5835,
      "絆": 5836,
      "経": 5837,
      "結": 5838,
      "絞": 5839,
      "絡": 5840,
      "給": 5841,
      "統": 5842,
      "絲": 5843,
      "絵": 5844,
      "絶": 5845,
      "絹": 5846,
      "經": 5847,
      "継": 5848,
      "綜": 5849,
      "綠": 5850,
      "綦": 5851,
      "維": 5852,
      "綱": 5853,
      "網": 5854,
      "綴": 5855,
      "綺": 5856,
      "綽": 5857,
      "綾": 5858,
      "綿": 5859,
      "緋": 5860,
      "総": 5861,
      "緑": 5862,
      "緒": 5863,
      "線": 5864,
      "締": 5865,
      "緣": 5866,
      "編": 5867,
      "緯": 5868,
      "練": 5869,
      "縁": 5870,
      "縄": 5871,
      "縣": 5872,
      "縦": 5873,
      "縫": 5874,
      "縮": 5875,
      "縱": 5876,
      "總": 5877,
      "繁": 5878,
      "繄": 5879,
      "織": 5880,
      "繚": 5881,
      "繪": 5882,
      "繰": 5883,
      "繼": 5884,
      "纂": 5885,
      "红": 5886,
      "约": 5887,
      "级": 5888,
      "纪": 5889,
      "纯": 5890,
      "纲": 5891,
      "纳": 5892,
      "纵": 5893,
      "线": 5894,
      "练": 5895,
      "组": 5896,
      "细": 5897,
      "织": 5898,
      "绍": 5899,
      "经": 5900,
      "结": 5901,
      "绕": 5902,
      "绘": 5903,
      "给": 5904,
      "绛": 5905,
      "络": 5906,
      "绝": 5907,
      "统": 5908,
      "绥": 5909,
      "绩": 5910,
      "维": 5911,
      "绵": 5912,
      "绿": 5913,
      "编": 5914,
      "缙": 5915,
      "缺": 5916,
      "罐": 5917,
      "网": 5918,
      "罕": 5919,
      "罗": 5920,
      "罘": 5921,
      "罠": 5922,
      "罪": 5923,
      "置": 5924,
      "罰": 5925,
      "署": 5926,
      "羅": 5927,
      "羈": 5928,
      "羊": 5929,
      "羌": 5930,
      "美": 5931,
      "群": 5932,
      "義": 5933,
      "羲": 5934,
      "羹": 5935,
      "羽": 5936,
      "翁": 5937,
      "翊": 5938,
      "翎": 5939,
      "習": 5940,
      "翔": 5941,
      "翘": 5942,
      "翟": 5943,
      "翠": 5944,
      "翡": 5945,
      "翰": 5946,
      "翳": 5947,
      "翻": 5948,
      "翼": 5949,
      "耀": 5950,
      "老": 5951,
      "考": 5952,
      "者": 5953,
      "耆": 5954,
      "耕": 5955,
      "耳": 5956,
      "耶": 5957,
      "耿": 5958,
      "聂": 5959,
      "聊": 5960,
      "联": 5961,
      "聖": 5962,
      "聚": 5963,
      "聞": 5964,
      "聡": 5965,
      "聯": 5966,
      "聰": 5967,
      "聲": 5968,
      "聴": 5969,
      "聽": 5970,
      "聿": 5971,
      "肃": 5972,
      "肅": 5973,
      "肇": 5974,
      "肉": 5975,
      "肌": 5976,
      "肓": 5977,
      "肖": 5978,
      "肘": 5979,
      "肚": 5980,
      "肝": 5981,
      "肠": 5982,
      "股": 5983,
      "肥": 5984,
      "肩": 5985,
      "肯": 5986,
      "育": 5987,
      "肺": 5988,
      "肾": 5989,
      "胃": 5990,
      "胆": 5991,
      "背": 5992,
      "胜": 5993,
      "胞": 5994,
      "胡": 5995,
      "胤": 5996,
      "胱": 5997,
      "胴": 5998,
      "胶": 5999,
      "胸": 6000,
      "能": 6001,
      "脇": 6002,
      "脈": 6003,
      "脉": 6004,
      "脊": 6005,
      "脏": 6006,
      "脑": 6007,
      "脘": 6008,
      "脚": 6009,
      "脩": 6010,
      "脱": 6011,
      "脳": 6012,
      "脾": 6013,
      "腊": 6014,
      "腋": 6015,
      "腎": 6016,
      "腐": 6017,
      "腑": 6018,
      "腕": 6019,
      "腦": 6020,
      "腧": 6021,
      "腰": 6022,
      "腳": 6023,
      "腸": 6024,
      "腹": 6025,
      "腾": 6026,
      "腿": 6027,
      "膀": 6028,
      "膂": 6029,
      "膈": 6030,
      "膏": 6031,
      "膑": 6032,
      "膝": 6033,
      "膳": 6034,
      "膺": 6035,
      "膻": 6036,
      "膽": 6037,
      "臂": 6038,
      "臏": 6039,
      "臑": 6040,
      "臓": 6041,
      "臘": 6042,
      "臟": 6043,
      "臣": 6044,
      "臥": 6045,
      "臧": 6046,
      "臨": 6047,
      "自": 6048,
      "至": 6049,
      "臺": 6050,
      "臼": 6051,
      "與": 6052,
      "興": 6053,
      "舊": 6054,
      "舌": 6055,
      "舍": 6056,
      "舎": 6057,
      "舐": 6058,
      "舒": 6059,
      "舜": 6060,
      "舞": 6061,
      "舟": 6062,
      "航": 6063,
      "般": 6064,
      "舰": 6065,
      "舶": 6066,
      "船": 6067,
      "艇": 6068,
      "艦": 6069,
      "艮": 6070,
      "良": 6071,
      "色": 6072,
      "艶": 6073,
      "艷": 6074,
      "艺": 6075,
      "艾": 6076,
      "节": 6077,
      "芍": 6078,
      "芎": 6079,
      "芒": 6080,
      "芗": 6081,
      "芙": 6082,
      "芜": 6083,
      "芝": 6084,
      "芥": 6085,
      "芦": 6086,
      "芩": 6087,
      "芪": 6088,
      "芫": 6089,
      "芬": 6090,
      "芭": 6091,
      "芮": 6092,
      "芯": 6093,
      "花": 6094,
      "芳": 6095,
      "芷": 6096,
      "芸": 6097,
      "芹": 6098,
      "芽": 6099,
      "苍": 6100,
      "苏": 6101,
      "苑": 6102,
      "苔": 6103,
      "苕": 6104,
      "苗": 6105,
      "苞": 6106,
      "苟": 6107,
      "苣": 6108,
      "若": 6109,
      "苦": 6110,
      "英": 6111,
      "苴": 6112,
      "苹": 6113,
      "苺": 6114,
      "茂": 6115,
      "范": 6116,
      "茄": 6117,
      "茅": 6118,
      "茉": 6119,
      "茜": 6120,
      "茨": 6121,
      "茫": 6122,
      "茱": 6123,
      "茶": 6124,
      "茸": 6125,
      "茹": 6126,
      "荀": 6127,
      "荆": 6128,
      "草": 6129,
      "荊": 6130,
      "荒": 6131,
      "荔": 6132,
      "荘": 6133,
      "荚": 6134,
      "荣": 6135,
      "荥": 6136,
      "荧": 6137,
      "荫": 6138,
      "药": 6139,
      "荷": 6140,
      "荼": 6141,
      "莆": 6142,
      "莉": 6143,
      "莊": 6144,
      "莎": 6145,
      "莞": 6146,
      "莨": 6147,
      "莪": 6148,
      "莫": 6149,
      "莱": 6150,
      "莲": 6151,
      "莴": 6152,
      "莽": 6153,
      "菀": 6154,
      "菅": 6155,
      "菇": 6156,
      "菊": 6157,
      "菏": 6158,
      "菓": 6159,
      "菖": 6160,
      "菜": 6161,
      "菩": 6162,
      "菪": 6163,
      "華": 6164,
      "菱": 6165,
      "菲": 6166,
      "菸": 6167,
      "菻": 6168,
      "萌": 6169,
      "萍": 6170,
      "萝": 6171,
      "萤": 6172,
      "营": 6173,
      "萧": 6174,
      "萨": 6175,
      "萩": 6176,
      "萬": 6177,
      "萼": 6178,
      "落": 6179,
      "葉": 6180,
      "著": 6181,
      "葛": 6182,
      "葡": 6183,
      "董": 6184,
      "葫": 6185,
      "葬": 6186,
      "葵": 6187,
      "蒂": 6188,
      "蒋": 6189,
      "蒙": 6190,
      "蒲": 6191,
      "蒸": 6192,
      "蒼": 6193,
      "蓉": 6194,
      "蓋": 6195,
      "蓝": 6196,
      "蓟": 6197,
      "蓥": 6198,
      "蓬": 6199,
      "蓮": 6200,
      "蔑": 6201,
      "蔚": 6202,
      "蔡": 6203,
      "蔣": 6204,
      "蔵": 6205,
      "蔺": 6206,
      "蕉": 6207,
      "蕣": 6208,
      "蕪": 6209,
      "蕭": 6210,
      "蕲": 6211,
      "薄": 6212,
      "薇": 6213,
      "薑": 6214,
      "薔": 6215,
      "薙": 6216,
      "薛": 6217,
      "薩": 6218,
      "薪": 6219,
      "薫": 6220,
      "薬": 6221,
      "藁": 6222,
      "藍": 6223,
      "藏": 6224,
      "藝": 6225,
      "藤": 6226,
      "藥": 6227,
      "藩": 6228,
      "藻": 6229,
      "藿": 6230,
      "蘄": 6231,
      "蘆": 6232,
      "蘇": 6233,
      "蘗": 6234,
      "蘭": 6235,
      "虎": 6236,
      "處": 6237,
      "虚": 6238,
      "虛": 6239,
      "虞": 6240,
      "號": 6241,
      "虫": 6242,
      "虹": 6243,
      "蚁": 6244,
      "蚂": 6245,
      "蚌": 6246,
      "蛇": 6247,
      "蛋": 6248,
      "蛍": 6249,
      "蛙": 6250,
      "蛛": 6251,
      "蛟": 6252,
      "蛤": 6253,
      "蛮": 6254,
      "蛸": 6255,
      "蛾": 6256,
      "蜀": 6257,
      "蜂": 6258,
      "蜃": 6259,
      "蜘": 6260,
      "蜜": 6261,
      "蜡": 6262,
      "蝉": 6263,
      "蝦": 6264,
      "蝴": 6265,
      "蝶": 6266,
      "螂": 6267,
      "融": 6268,
      "螢": 6269,
      "螳": 6270,
      "螺": 6271,
      "蟄": 6272,
      "蟇": 6273,
      "蟲": 6274,
      "蟻": 6275,
      "蟾": 6276,
      "蠍": 6277,
      "蠡": 6278,
      "蠶": 6279,
      "血": 6280,
      "衆": 6281,
      "行": 6282,
      "衍": 6283,
      "術": 6284,
      "街": 6285,
      "衙": 6286,
      "衛": 6287,
      "衝": 6288,
      "衞": 6289,
      "衡": 6290,
      "衢": 6291,
      "衣": 6292,
      "表": 6293,
      "衿": 6294,
      "袁": 6295,
      "袄": 6296,
      "袋": 6297,
      "袍": 6298,
      "袖": 6299,
      "袞": 6300,
      "被": 6301,
      "袴": 6302,
      "袷": 6303,
      "裁": 6304,
      "裂": 6305,
      "装": 6306,
      "裏": 6307,
      "裕": 6308,
      "裘": 6309,
      "補": 6310,
      "裡": 6311,
      "裴": 6312,
      "裸": 6313,
      "製": 6314,
      "褔": 6315,
      "褚": 6316,
      "襄": 6317,
      "襖": 6318,
      "襲": 6319,
      "西": 6320,
      "要": 6321,
      "覃": 6322,
      "覇": 6323,
      "見": 6324,
      "規": 6325,
      "視": 6326,
      "覚": 6327,
      "親": 6328,
      "観": 6329,
      "覺": 6330,
      "觀": 6331,
      "观": 6332,
      "视": 6333,
      "觉": 6334,
      "角": 6335,
      "解": 6336,
      "触": 6337,
      "觱": 6338,
      "言": 6339,
      "計": 6340,
      "訓": 6341,
      "記": 6342,
      "訢": 6343,
      "訥": 6344,
      "訪": 6345,
      "設": 6346,
      "許": 6347,
      "訳": 6348,
      "訶": 6349,
      "証": 6350,
      "詠": 6351,
      "詣": 6352,
      "詥": 6353,
      "試": 6354,
      "詩": 6355,
      "詰": 6356,
      "話": 6357,
      "詹": 6358,
      "誇": 6359,
      "誉": 6360,
      "誌": 6361,
      "認": 6362,
      "誓": 6363,
      "誕": 6364,
      "誘": 6365,
      "語": 6366,
      "誠": 6367,
      "誦": 6368,
      "誨": 6369,
      "說": 6370,
      "説": 6371,
      "読": 6372,
      "誰": 6373,
      "課": 6374,
      "誴": 6375,
      "誼": 6376,
      "調": 6377,
      "談": 6378,
      "請": 6379,
      "諏": 6380,
      "諒": 6381,
      "論": 6382,
      "諡": 6383,
      "諭": 6384,
      "諴": 6385,
      "諷": 6386,
      "諸": 6387,
      "諾": 6388,
      "謀": 6389,
      "謌": 6390,
      "謎": 6391,
      "謙": 6392,
      "講": 6393,
      "謝": 6394,
      "謳": 6395,
      "譆": 6396,
      "證": 6397,
      "譓": 6398,
      "識": 6399,
      "譚": 6400,
      "譜": 6401,
      "警": 6402,
      "譩": 6403,
      "議": 6404,
      "譲": 6405,
      "護": 6406,
      "讃": 6407,
      "變": 6408,
      "讐": 6409,
      "讓": 6410,
      "计": 6411,
      "记": 6412,
      "讲": 6413,
      "讷": 6414,
      "许": 6415,
      "论": 6416,
      "设": 6417,
      "识": 6418,
      "诏": 6419,
      "试": 6420,
      "诗": 6421,
      "诘": 6422,
      "诚": 6423,
      "诛": 6424,
      "话": 6425,
      "诡": 6426,
      "询": 6427,
      "语": 6428,
      "说": 6429,
      "诸": 6430,
      "诺": 6431,
      "课": 6432,
      "谁": 6433,
      "调": 6434,
      "谈": 6435,
      "谊": 6436,
      "谋": 6437,
      "谟": 6438,
      "谢": 6439,
      "谦": 6440,
      "谭": 6441,
      "谷": 6442,
      "谿": 6443,
      "豁": 6444,
      "豆": 6445,
      "豊": 6446,
      "豐": 6447,
      "豚": 6448,
      "象": 6449,
      "豪": 6450,
      "豫": 6451,
      "豬": 6452,
      "豹": 6453,
      "貌": 6454,
      "貓": 6455,
      "貝": 6456,
      "貞": 6457,
      "負": 6458,
      "財": 6459,
      "貢": 6460,
      "貧": 6461,
      "貨": 6462,
      "貪": 6463,
      "貫": 6464,
      "責": 6465,
      "貯": 6466,
      "貳": 6467,
      "貴": 6468,
      "買": 6469,
      "費": 6470,
      "貿": 6471,
      "賀": 6472,
      "資": 6473,
      "賈": 6474,
      "賊": 6475,
      "賓": 6476,
      "賛": 6477,
      "賜": 6478,
      "賞": 6479,
      "賢": 6480,
      "賣": 6481,
      "賦": 6482,
      "質": 6483,
      "賭": 6484,
      "賴": 6485,
      "賽": 6486,
      "贇": 6487,
      "贈": 6488,
      "贊": 6489,
      "贏": 6490,
      "贛": 6491,
      "贝": 6492,
      "贞": 6493,
      "贡": 6494,
      "财": 6495,
      "责": 6496,
      "贤": 6497,
      "质": 6498,
      "贰": 6499,
      "贵": 6500,
      "贺": 6501,
      "贼": 6502,
      "贾": 6503,
      "资": 6504,
      "赉": 6505,
      "赐": 6506,
      "赛": 6507,
      "赞": 6508,
      "赢": 6509,
      "赣": 6510,
      "赤": 6511,
      "赧": 6512,
      "赫": 6513,
      "走": 6514,
      "赳": 6515,
      "赴": 6516,
      "赵": 6517,
      "赶": 6518,
      "起": 6519,
      "超": 6520,
      "越": 6521,
      "趙": 6522,
      "足": 6523,
      "趾": 6524,
      "跆": 6525,
      "跋": 6526,
      "跗": 6527,
      "距": 6528,
      "跟": 6529,
      "跡": 6530,
      "跤": 6531,
      "跨": 6532,
      "路": 6533,
      "跳": 6534,
      "踊": 6535,
      "踏": 6536,
      "踪": 6537,
      "蹄": 6538,
      "蹟": 6539,
      "躁": 6540,
      "躇": 6541,
      "躊": 6542,
      "躍": 6543,
      "身": 6544,
      "躰": 6545,
      "躲": 6546,
      "車": 6547,
      "軌": 6548,
      "軍": 6549,
      "軒": 6550,
      "軟": 6551,
      "転": 6552,
      "軸": 6553,
      "軽": 6554,
      "載": 6555,
      "輒": 6556,
      "輓": 6557,
      "輔": 6558,
      "輝": 6559,
      "輩": 6560,
      "輪": 6561,
      "輯": 6562,
      "輿": 6563,
      "轄": 6564,
      "轉": 6565,
      "轟": 6566,
      "车": 6567,
      "轨": 6568,
      "轩": 6569,
      "转": 6570,
      "软": 6571,
      "载": 6572,
      "辆": 6573,
      "辉": 6574,
      "辕": 6575,
      "辖": 6576,
      "辛": 6577,
      "辞": 6578,
      "辟": 6579,
      "辣": 6580,
      "辭": 6581,
      "辰": 6582,
      "辱": 6583,
      "農": 6584,
      "边": 6585,
      "辺": 6586,
      "辻": 6587,
      "込": 6588,
      "辽": 6589,
      "达": 6590,
      "辿": 6591,
      "迁": 6592,
      "过": 6593,
      "迎": 6594,
      "运": 6595,
      "近": 6596,
      "返": 6597,
      "这": 6598,
      "进": 6599,
      "远": 6600,
      "连": 6601,
      "迦": 6602,
      "迫": 6603,
      "迭": 6604,
      "迴": 6605,
      "迷": 6606,
      "迹": 6607,
      "追": 6608,
      "退": 6609,
      "送": 6610,
      "适": 6611,
      "逃": 6612,
      "逆": 6613,
      "选": 6614,
      "逊": 6615,
      "逍": 6616,
      "透": 6617,
      "途": 6618,
      "逗": 6619,
      "這": 6620,
      "通": 6621,
      "速": 6622,
      "造": 6623,
      "逢": 6624,
      "連": 6625,
      "逮": 6626,
      "週": 6627,
      "進": 6628,
      "逵": 6629,
      "逸": 6630,
      "逹": 6631,
      "逻": 6632,
      "遁": 6633,
      "遂": 6634,
      "遇": 6635,
      "遊": 6636,
      "運": 6637,
      "過": 6638,
      "道": 6639,
      "達": 6640,
      "違": 6641,
      "遗": 6642,
      "遙": 6643,
      "遜": 6644,
      "遠": 6645,
      "遣": 6646,
      "遥": 6647,
      "遭": 6648,
      "遲": 6649,
      "遵": 6650,
      "遷": 6651,
      "選": 6652,
      "遺": 6653,
      "遼": 6654,
      "避": 6655,
      "邀": 6656,
      "邃": 6657,
      "還": 6658,
      "邈": 6659,
      "邊": 6660,
      "邑": 6661,
      "邓": 6662,
      "邕": 6663,
      "邗": 6664,
      "邡": 6665,
      "邢": 6666,
      "那": 6667,
      "邦": 6668,
      "邪": 6669,
      "邮": 6670,
      "邯": 6671,
      "邱": 6672,
      "邲": 6673,
      "邳": 6674,
      "邵": 6675,
      "邻": 6676,
      "郁": 6677,
      "郄": 6678,
      "郊": 6679,
      "郎": 6680,
      "郑": 6681,
      "郝": 6682,
      "郞": 6683,
      "郡": 6684,
      "郧": 6685,
      "部": 6686,
      "郭": 6687,
      "郴": 6688,
      "郵": 6689,
      "郷": 6690,
      "郸": 6691,
      "都": 6692,
      "郾": 6693,
      "鄂": 6694,
      "鄉": 6695,
      "鄒": 6696,
      "鄕": 6697,
      "鄢": 6698,
      "鄧": 6699,
      "鄭": 6700,
      "鄯": 6701,
      "鄰": 6702,
      "鄱": 6703,
      "酉": 6704,
      "配": 6705,
      "酒": 6706,
      "酔": 6707,
      "酷": 6708,
      "醂": 6709,
      "醇": 6710,
      "醍": 6711,
      "醐": 6712,
      "醒": 6713,
      "醜": 6714,
      "醫": 6715,
      "醴": 6716,
      "采": 6717,
      "釈": 6718,
      "釉": 6719,
      "釋": 6720,
      "里": 6721,
      "重": 6722,
      "野": 6723,
      "量": 6724,
      "釐": 6725,
      "金": 6726,
      "釗": 6727,
      "釘": 6728,
      "釜": 6729,
      "針": 6730,
      "釧": 6731,
      "鈕": 6732,
      "鈞": 6733,
      "鈴": 6734,
      "鈺": 6735,
      "鉄": 6736,
      "鉉": 6737,
      "鉞": 6738,
      "鉢": 6739,
      "鉤": 6740,
      "鉱": 6741,
      "銀": 6742,
      "銃": 6743,
      "銅": 6744,
      "銓": 6745,
      "銘": 6746,
      "銭": 6747,
      "鋒": 6748,
      "鋳": 6749,
      "鋹": 6750,
      "鋼": 6751,
      "錄": 6752,
      "錢": 6753,
      "錣": 6754,
      "錦": 6755,
      "錫": 6756,
      "錬": 6757,
      "録": 6758,
      "鍵": 6759,
      "鍾": 6760,
      "鎌": 6761,
      "鎖": 6762,
      "鎡": 6763,
      "鎮": 6764,
      "鏐": 6765,
      "鏞": 6766,
      "鏡": 6767,
      "鐘": 6768,
      "鐚": 6769,
      "鐵": 6770,
      "鐸": 6771,
      "鑑": 6772,
      "鑒": 6773,
      "鑣": 6774,
      "鑫": 6775,
      "鑼": 6776,
      "鑽": 6777,
      "针": 6778,
      "钗": 6779,
      "钟": 6780,
      "钢": 6781,
      "钦": 6782,
      "钱": 6783,
      "钵": 6784,
      "铁": 6785,
      "铜": 6786,
      "铝": 6787,
      "铮": 6788,
      "银": 6789,
      "铺": 6790,
      "锅": 6791,
      "锋": 6792,
      "错": 6793,
      "锟": 6794,
      "锡": 6795,
      "锦": 6796,
      "镇": 6797,
      "镜": 6798,
      "長": 6799,
      "长": 6800,
      "門": 6801,
      "閃": 6802,
      "閉": 6803,
      "開": 6804,
      "間": 6805,
      "閔": 6806,
      "関": 6807,
      "閣": 6808,
      "閤": 6809,
      "閥": 6810,
      "閨": 6811,
      "閩": 6812,
      "閬": 6813,
      "闇": 6814,
      "闕": 6815,
      "闘": 6816,
      "關": 6817,
      "闡": 6818,
      "门": 6819,
      "闪": 6820,
      "闭": 6821,
      "问": 6822,
      "间": 6823,
      "闵": 6824,
      "闹": 6825,
      "闻": 6826,
      "闽": 6827,
      "闾": 6828,
      "阁": 6829,
      "阅": 6830,
      "阆": 6831,
      "阎": 6832,
      "阜": 6833,
      "阡": 6834,
      "阪": 6835,
      "阮": 6836,
      "防": 6837,
      "阳": 6838,
      "阴": 6839,
      "阶": 6840,
      "阿": 6841,
      "陀": 6842,
      "陂": 6843,
      "附": 6844,
      "际": 6845,
      "陆": 6846,
      "陇": 6847,
      "陈": 6848,
      "陉": 6849,
      "降": 6850,
      "限": 6851,
      "陕": 6852,
      "陟": 6853,
      "院": 6854,
      "陣": 6855,
      "除": 6856,
      "险": 6857,
      "陰": 6858,
      "陳": 6859,
      "陵": 6860,
      "陶": 6861,
      "陷": 6862,
      "陸": 6863,
      "険": 6864,
      "陽": 6865,
      "隅": 6866,
      "隆": 6867,
      "隈": 6868,
      "隊": 6869,
      "隋": 6870,
      "隍": 6871,
      "階": 6872,
      "随": 6873,
      "際": 6874,
      "障": 6875,
      "隠": 6876,
      "隣": 6877,
      "隰": 6878,
      "隱": 6879,
      "隶": 6880,
      "隷": 6881,
      "隸": 6882,
      "难": 6883,
      "雀": 6884,
      "雁": 6885,
      "雄": 6886,
      "雅": 6887,
      "集": 6888,
      "雉": 6889,
      "雍": 6890,
      "雑": 6891,
      "雒": 6892,
      "雙": 6893,
      "雛": 6894,
      "雜": 6895,
      "雞": 6896,
      "離": 6897,
      "難": 6898,
      "雨": 6899,
      "雩": 6900,
      "雪": 6901,
      "雫": 6902,
      "雯": 6903,
      "雲": 6904,
      "零": 6905,
      "雷": 6906,
      "電": 6907,
      "雾": 6908,
      "霄": 6909,
      "震": 6910,
      "霊": 6911,
      "霍": 6912,
      "霜": 6913,
      "霞": 6914,
      "霧": 6915,
      "露": 6916,
      "霸": 6917,
      "靈": 6918,
      "靑": 6919,
      "青": 6920,
      "靓": 6921,
      "靖": 6922,
      "静": 6923,
      "靚": 6924,
      "靜": 6925,
      "非": 6926,
      "靠": 6927,
      "面": 6928,
      "革": 6929,
      "靴": 6930,
      "鞄": 6931,
      "鞅": 6932,
      "鞍": 6933,
      "鞏": 6934,
      "鞘": 6935,
      "鞭": 6936,
      "韋": 6937,
      "韓": 6938,
      "韜": 6939,
      "韩": 6940,
      "韭": 6941,
      "音": 6942,
      "韶": 6943,
      "韻": 6944,
      "響": 6945,
      "頁": 6946,
      "頂": 6947,
      "頃": 6948,
      "順": 6949,
      "須": 6950,
      "頊": 6951,
      "預": 6952,
      "領": 6953,
      "頤": 6954,
      "頭": 6955,
      "頰": 6956,
      "頷": 6957,
      "頼": 6958,
      "顆": 6959,
      "題": 6960,
      "額": 6961,
      "顏": 6962,
      "顒": 6963,
      "顓": 6964,
      "顔": 6965,
      "顖": 6966,
      "願": 6967,
      "類": 6968,
      "顧": 6969,
      "顯": 6970,
      "顱": 6971,
      "顴": 6972,
      "顶": 6973,
      "顷": 6974,
      "项": 6975,
      "顺": 6976,
      "领": 6977,
      "颍": 6978,
      "颐": 6979,
      "频": 6980,
      "额": 6981,
      "風": 6982,
      "风": 6983,
      "飛": 6984,
      "飞": 6985,
      "食": 6986,
      "飢": 6987,
      "飩": 6988,
      "飯": 6989,
      "飲": 6990,
      "飼": 6991,
      "飾": 6992,
      "餃": 6993,
      "餅": 6994,
      "養": 6995,
      "餌": 6996,
      "餐": 6997,
      "餓": 6998,
      "餘": 6999,
      "餠": 7000,
      "餡": 7001,
      "館": 7002,
      "饂": 7003,
      "饅": 7004,
      "饋": 7005,
      "饒": 7006,
      "饭": 7007,
      "饶": 7008,
      "饺": 7009,
      "饼": 7010,
      "馆": 7011,
      "馒": 7012,
      "首": 7013,
      "香": 7014,
      "馬": 7015,
      "馮": 7016,
      "駄": 7017,
      "駅": 7018,
      "駆": 7019,
      "駒": 7020,
      "駕": 7021,
      "駛": 7022,
      "駿": 7023,
      "騎": 7024,
      "騒": 7025,
      "験": 7026,
      "騰": 7027,
      "騷": 7028,
      "驕": 7029,
      "驚": 7030,
      "驛": 7031,
      "驟": 7032,
      "驪": 7033,
      "马": 7034,
      "驻": 7035,
      "骅": 7036,
      "骆": 7037,
      "验": 7038,
      "骨": 7039,
      "骸": 7040,
      "髀": 7041,
      "髃": 7042,
      "髄": 7043,
      "髎": 7044,
      "體": 7045,
      "高": 7046,
      "髙": 7047,
      "髪": 7048,
      "髭": 7049,
      "髷": 7050,
      "鬆": 7051,
      "鬢": 7052,
      "鬥": 7053,
      "鬱": 7054,
      "鬼": 7055,
      "魁": 7056,
      "魂": 7057,
      "魄": 7058,
      "魅": 7059,
      "魏": 7060,
      "魔": 7061,
      "魚": 7062,
      "魯": 7063,
      "鮮": 7064,
      "鯛": 7065,
      "鯨": 7066,
      "鰹": 7067,
      "鱗": 7068,
      "鱼": 7069,
      "鲁": 7070,
      "鲅": 7071,
      "鲊": 7072,
      "鲜": 7073,
      "鲤": 7074,
      "鳞": 7075,
      "鳥": 7076,
      "鳧": 7077,
      "鳩": 7078,
      "鳳": 7079,
      "鳴": 7080,
      "鴇": 7081,
      "鴛": 7082,
      "鴦": 7083,
      "鴨": 7084,
      "鴻": 7085,
      "鵬": 7086,
      "鵰": 7087,
      "鵺": 7088,
      "鶏": 7089,
      "鶚": 7090,
      "鶯": 7091,
      "鶴": 7092,
      "鷗": 7093,
      "鷲": 7094,
      "鷹": 7095,
      "鷺": 7096,
      "鸟": 7097,
      "鸠": 7098,
      "鸡": 7099,
      "鸭": 7100,
      "鸿": 7101,
      "鹃": 7102,
      "鹅": 7103,
      "鹏": 7104,
      "鹗": 7105,
      "鹤": 7106,
      "鹰": 7107,
      "鹽": 7108,
      "鹿": 7109,
      "麒": 7110,
      "麓": 7111,
      "麗": 7112,
      "麟": 7113,
      "麥": 7114,
      "麦": 7115,
      "麩": 7116,
      "麵": 7117,
      "麹": 7118,
      "麺": 7119,
      "麻": 7120,
      "黃": 7121,
      "黄": 7122,
      "黎": 7123,
      "黑": 7124,
      "黒": 7125,
      "黔": 7126,
      "黙": 7127,
      "黛": 7128,
      "點": 7129,
      "黨": 7130,
      "黼": 7131,
      "鼎": 7132,
      "鼓": 7133,
      "鼠": 7134,
      "鼻": 7135,
      "齊": 7136,
      "齐": 7137,
      "齒": 7138,
      "齡": 7139,
      "齦": 7140,
      "龍": 7141,
      "龐": 7142,
      "龔": 7143,
      "龕": 7144,
      "龙": 7145,
      "龜": 7146,
      "龟": 7147,
      "ꆈ": 7148,
      "ꌠ": 7149,
      "ꙁ": 7150,
      "Ꙋ": 7151,
      "ꙑ": 7152,
      "ꙗ": 7153,
      "ꜜ": 7154,
      "ꜣ": 7155,
      "Ꜥ": 7156,
      "ꜥ": 7157,
      "꞉": 7158,
      "ꞑ": 7159,
      "ꞷ": 7160,
      "ꦂ": 7161,
      "ꦏ": 7162,
      "ꦒ": 7163,
      "ꦔ": 7164,
      "ꦕ": 7165,
      "ꦖ": 7166,
      "ꦗ": 7167,
      "ꦚ": 7168,
      "ꦛ": 7169,
      "ꦝ": 7170,
      "ꦟ": 7171,
      "ꦠ": 7172,
      "ꦢ": 7173,
      "ꦤ": 7174,
      "ꦥ": 7175,
      "ꦧ": 7176,
      "ꦩ": 7177,
      "ꦪ": 7178,
      "ꦫ": 7179,
      "ꦭ": 7180,
      "ꦮ": 7181,
      "ꦱ": 7182,
      "ꦲ": 7183,
      "ꦴ": 7184,
      "ꦶ": 7185,
      "ꦸ": 7186,
      "ꦺ": 7187,
      "ꦿ": 7188,
      "꧀": 7189,
      "꧅": 7190,
      "꧉": 7191,
      "꧋": 7192,
      "꧞": 7193,
      "가": 7194,
      "각": 7195,
      "간": 7196,
      "갈": 7197,
      "감": 7198,
      "갑": 7199,
      "강": 7200,
      "같": 7201,
      "개": 7202,
      "갤": 7203,
      "거": 7204,
      "건": 7205,
      "걸": 7206,
      "검": 7207,
      "게": 7208,
      "겐": 7209,
      "겜": 7210,
      "겠": 7211,
      "겨": 7212,
      "격": 7213,
      "견": 7214,
      "결": 7215,
      "겸": 7216,
      "경": 7217,
      "곁": 7218,
      "계": 7219,
      "고": 7220,
      "곡": 7221,
      "곤": 7222,
      "골": 7223,
      "곰": 7224,
      "공": 7225,
      "과": 7226,
      "곽": 7227,
      "관": 7228,
      "광": 7229,
      "괜": 7230,
      "괴": 7231,
      "교": 7232,
      "굔": 7233,
      "구": 7234,
      "국": 7235,
      "군": 7236,
      "굴": 7237,
      "굽": 7238,
      "궁": 7239,
      "권": 7240,
      "귀": 7241,
      "규": 7242,
      "균": 7243,
      "그": 7244,
      "극": 7245,
      "근": 7246,
      "귿": 7247,
      "글": 7248,
      "금": 7249,
      "급": 7250,
      "기": 7251,
      "긴": 7252,
      "길": 7253,
      "김": 7254,
      "깅": 7255,
      "까": 7256,
      "깨": 7257,
      "께": 7258,
      "꽃": 7259,
      "꽉": 7260,
      "꾸": 7261,
      "꾼": 7262,
      "꿀": 7263,
      "꿈": 7264,
      "끝": 7265,
      "나": 7266,
      "낙": 7267,
      "난": 7268,
      "날": 7269,
      "남": 7270,
      "났": 7271,
      "낭": 7272,
      "낮": 7273,
      "내": 7274,
      "낸": 7275,
      "냉": 7276,
      "너": 7277,
      "넌": 7278,
      "널": 7279,
      "네": 7280,
      "녀": 7281,
      "녁": 7282,
      "년": 7283,
      "념": 7284,
      "녕": 7285,
      "노": 7286,
      "녹": 7287,
      "논": 7288,
      "놀": 7289,
      "놈": 7290,
      "농": 7291,
      "높": 7292,
      "누": 7293,
      "눈": 7294,
      "뉴": 7295,
      "느": 7296,
      "늑": 7297,
      "는": 7298,
      "늘": 7299,
      "능": 7300,
      "니": 7301,
      "님": 7302,
      "닝": 7303,
      "다": 7304,
      "닥": 7305,
      "단": 7306,
      "달": 7307,
      "닮": 7308,
      "닳": 7309,
      "담": 7310,
      "답": 7311,
      "당": 7312,
      "대": 7313,
      "댄": 7314,
      "더": 7315,
      "덕": 7316,
      "던": 7317,
      "덩": 7318,
      "데": 7319,
      "덱": 7320,
      "뎅": 7321,
      "도": 7322,
      "독": 7323,
      "돈": 7324,
      "돌": 7325,
      "돗": 7326,
      "동": 7327,
      "돼": 7328,
      "되": 7329,
      "된": 7330,
      "두": 7331,
      "둑": 7332,
      "둘": 7333,
      "둥": 7334,
      "뒤": 7335,
      "뒹": 7336,
      "듀": 7337,
      "드": 7338,
      "득": 7339,
      "든": 7340,
      "들": 7341,
      "듬": 7342,
      "듯": 7343,
      "등": 7344,
      "디": 7345,
      "딘": 7346,
      "따": 7347,
      "딴": 7348,
      "딸": 7349,
      "때": 7350,
      "떠": 7351,
      "떡": 7352,
      "떨": 7353,
      "떼": 7354,
      "또": 7355,
      "똥": 7356,
      "뚝": 7357,
      "뚱": 7358,
      "뛰": 7359,
      "뜨": 7360,
      "뜸": 7361,
      "라": 7362,
      "락": 7363,
      "란": 7364,
      "랄": 7365,
      "람": 7366,
      "랍": 7367,
      "랑": 7368,
      "래": 7369,
      "랙": 7370,
      "랜": 7371,
      "랭": 7372,
      "량": 7373,
      "러": 7374,
      "럭": 7375,
      "런": 7376,
      "럼": 7377,
      "럽": 7378,
      "렁": 7379,
      "레": 7380,
      "렉": 7381,
      "렌": 7382,
      "려": 7383,
      "력": 7384,
      "련": 7385,
      "령": 7386,
      "로": 7387,
      "록": 7388,
      "론": 7389,
      "롤": 7390,
      "롬": 7391,
      "롱": 7392,
      "룡": 7393,
      "루": 7394,
      "룩": 7395,
      "류": 7396,
      "률": 7397,
      "르": 7398,
      "륵": 7399,
      "른": 7400,
      "를": 7401,
      "름": 7402,
      "릉": 7403,
      "리": 7404,
      "릭": 7405,
      "린": 7406,
      "릴": 7407,
      "림": 7408,
      "립": 7409,
      "릿": 7410,
      "링": 7411,
      "마": 7412,
      "막": 7413,
      "만": 7414,
      "말": 7415,
      "맘": 7416,
      "맛": 7417,
      "망": 7418,
      "맞": 7419,
      "맡": 7420,
      "매": 7421,
      "맨": 7422,
      "맹": 7423,
      "머": 7424,
      "먼": 7425,
      "메": 7426,
      "멘": 7427,
      "멜": 7428,
      "면": 7429,
      "명": 7430,
      "모": 7431,
      "목": 7432,
      "몬": 7433,
      "몰": 7434,
      "못": 7435,
      "몽": 7436,
      "뫼": 7437,
      "묘": 7438,
      "무": 7439,
      "묵": 7440,
      "문": 7441,
      "물": 7442,
      "뭉": 7443,
      "뭍": 7444,
      "뭐": 7445,
      "미": 7446,
      "민": 7447,
      "믿": 7448,
      "밀": 7449,
      "바": 7450,
      "박": 7451,
      "밖": 7452,
      "반": 7453,
      "받": 7454,
      "발": 7455,
      "밝": 7456,
      "밤": 7457,
      "방": 7458,
      "배": 7459,
      "백": 7460,
      "밴": 7461,
      "뱀": 7462,
      "뱃": 7463,
      "뱉": 7464,
      "버": 7465,
      "번": 7466,
      "벌": 7467,
      "범": 7468,
      "법": 7469,
      "베": 7470,
      "벤": 7471,
      "벽": 7472,
      "변": 7473,
      "별": 7474,
      "병": 7475,
      "볕": 7476,
      "보": 7477,
      "복": 7478,
      "본": 7479,
      "봄": 7480,
      "봉": 7481,
      "봐": 7482,
      "봤": 7483,
      "부": 7484,
      "북": 7485,
      "분": 7486,
      "불": 7487,
      "붕": 7488,
      "뷔": 7489,
      "브": 7490,
      "븐": 7491,
      "블": 7492,
      "비": 7493,
      "빅": 7494,
      "빈": 7495,
      "빌": 7496,
      "빙": 7497,
      "빛": 7498,
      "빠": 7499,
      "빨": 7500,
      "빵": 7501,
      "빼": 7502,
      "뺏": 7503,
      "뻐": 7504,
      "뻬": 7505,
      "뽀": 7506,
      "뿌": 7507,
      "뿐": 7508,
      "쁘": 7509,
      "쁜": 7510,
      "쁨": 7511,
      "삐": 7512,
      "사": 7513,
      "삭": 7514,
      "산": 7515,
      "살": 7516,
      "삼": 7517,
      "삽": 7518,
      "상": 7519,
      "새": 7520,
      "샘": 7521,
      "생": 7522,
      "샤": 7523,
      "샴": 7524,
      "샷": 7525,
      "서": 7526,
      "석": 7527,
      "선": 7528,
      "설": 7529,
      "섬": 7530,
      "섭": 7531,
      "섯": 7532,
      "성": 7533,
      "세": 7534,
      "센": 7535,
      "셔": 7536,
      "션": 7537,
      "소": 7538,
      "속": 7539,
      "손": 7540,
      "솔": 7541,
      "솜": 7542,
      "송": 7543,
      "쇄": 7544,
      "수": 7545,
      "숙": 7546,
      "순": 7547,
      "술": 7548,
      "쉐": 7549,
      "쉬": 7550,
      "쉿": 7551,
      "슈": 7552,
      "스": 7553,
      "슨": 7554,
      "슬": 7555,
      "슴": 7556,
      "습": 7557,
      "승": 7558,
      "시": 7559,
      "식": 7560,
      "신": 7561,
      "실": 7562,
      "싫": 7563,
      "심": 7564,
      "십": 7565,
      "싱": 7566,
      "싶": 7567,
      "싸": 7568,
      "쌍": 7569,
      "쌓": 7570,
      "써": 7571,
      "쏜": 7572,
      "쓰": 7573,
      "씨": 7574,
      "씽": 7575,
      "아": 7576,
      "악": 7577,
      "안": 7578,
      "않": 7579,
      "알": 7580,
      "암": 7581,
      "압": 7582,
      "았": 7583,
      "앙": 7584,
      "앞": 7585,
      "애": 7586,
      "액": 7587,
      "앤": 7588,
      "앨": 7589,
      "야": 7590,
      "약": 7591,
      "양": 7592,
      "얘": 7593,
      "어": 7594,
      "억": 7595,
      "언": 7596,
      "엄": 7597,
      "업": 7598,
      "없": 7599,
      "었": 7600,
      "엉": 7601,
      "에": 7602,
      "엑": 7603,
      "엔": 7604,
      "엘": 7605,
      "엠": 7606,
      "여": 7607,
      "역": 7608,
      "연": 7609,
      "열": 7610,
      "염": 7611,
      "엽": 7612,
      "였": 7613,
      "영": 7614,
      "예": 7615,
      "옌": 7616,
      "옛": 7617,
      "오": 7618,
      "옥": 7619,
      "온": 7620,
      "올": 7621,
      "옷": 7622,
      "옹": 7623,
      "와": 7624,
      "완": 7625,
      "왕": 7626,
      "왜": 7627,
      "외": 7628,
      "요": 7629,
      "욕": 7630,
      "욤": 7631,
      "용": 7632,
      "우": 7633,
      "욱": 7634,
      "운": 7635,
      "울": 7636,
      "움": 7637,
      "웅": 7638,
      "워": 7639,
      "원": 7640,
      "월": 7641,
      "웨": 7642,
      "웹": 7643,
      "위": 7644,
      "윈": 7645,
      "유": 7646,
      "육": 7647,
      "윤": 7648,
      "율": 7649,
      "으": 7650,
      "은": 7651,
      "을": 7652,
      "음": 7653,
      "읍": 7654,
      "응": 7655,
      "읒": 7656,
      "읓": 7657,
      "읔": 7658,
      "읕": 7659,
      "읖": 7660,
      "읗": 7661,
      "의": 7662,
      "이": 7663,
      "익": 7664,
      "인": 7665,
      "일": 7666,
      "임": 7667,
      "입": 7668,
      "있": 7669,
      "잉": 7670,
      "잊": 7671,
      "자": 7672,
      "작": 7673,
      "잔": 7674,
      "잘": 7675,
      "잠": 7676,
      "잡": 7677,
      "장": 7678,
      "재": 7679,
      "잭": 7680,
      "쟁": 7681,
      "저": 7682,
      "전": 7683,
      "절": 7684,
      "젊": 7685,
      "점": 7686,
      "접": 7687,
      "정": 7688,
      "제": 7689,
      "젠": 7690,
      "젤": 7691,
      "져": 7692,
      "조": 7693,
      "족": 7694,
      "존": 7695,
      "종": 7696,
      "좋": 7697,
      "좌": 7698,
      "죠": 7699,
      "주": 7700,
      "죽": 7701,
      "준": 7702,
      "줄": 7703,
      "중": 7704,
      "줘": 7705,
      "쥐": 7706,
      "쥬": 7707,
      "즈": 7708,
      "즐": 7709,
      "즘": 7710,
      "증": 7711,
      "지": 7712,
      "직": 7713,
      "진": 7714,
      "질": 7715,
      "짐": 7716,
      "집": 7717,
      "짓": 7718,
      "징": 7719,
      "짜": 7720,
      "째": 7721,
      "쩔": 7722,
      "쭉": 7723,
      "쯔": 7724,
      "찌": 7725,
      "찔": 7726,
      "찜": 7727,
      "차": 7728,
      "착": 7729,
      "찬": 7730,
      "찮": 7731,
      "찰": 7732,
      "창": 7733,
      "찾": 7734,
      "채": 7735,
      "책": 7736,
      "처": 7737,
      "천": 7738,
      "철": 7739,
      "첫": 7740,
      "청": 7741,
      "체": 7742,
      "쳐": 7743,
      "초": 7744,
      "촌": 7745,
      "총": 7746,
      "촨": 7747,
      "최": 7748,
      "추": 7749,
      "축": 7750,
      "춘": 7751,
      "출": 7752,
      "춤": 7753,
      "충": 7754,
      "취": 7755,
      "츠": 7756,
      "층": 7757,
      "치": 7758,
      "친": 7759,
      "칠": 7760,
      "침": 7761,
      "카": 7762,
      "캐": 7763,
      "캔": 7764,
      "커": 7765,
      "컬": 7766,
      "컵": 7767,
      "케": 7768,
      "켈": 7769,
      "켠": 7770,
      "코": 7771,
      "콥": 7772,
      "쾌": 7773,
      "쿠": 7774,
      "큐": 7775,
      "크": 7776,
      "클": 7777,
      "키": 7778,
      "타": 7779,
      "탁": 7780,
      "탄": 7781,
      "탑": 7782,
      "탕": 7783,
      "태": 7784,
      "택": 7785,
      "터": 7786,
      "턴": 7787,
      "털": 7788,
      "테": 7789,
      "텔": 7790,
      "토": 7791,
      "톱": 7792,
      "통": 7793,
      "투": 7794,
      "툰": 7795,
      "툴": 7796,
      "트": 7797,
      "특": 7798,
      "틀": 7799,
      "티": 7800,
      "틱": 7801,
      "틴": 7802,
      "파": 7803,
      "판": 7804,
      "팔": 7805,
      "팝": 7806,
      "팥": 7807,
      "패": 7808,
      "팬": 7809,
      "팻": 7810,
      "퍼": 7811,
      "펜": 7812,
      "편": 7813,
      "평": 7814,
      "포": 7815,
      "폭": 7816,
      "폴": 7817,
      "표": 7818,
      "푸": 7819,
      "풀": 7820,
      "풋": 7821,
      "풍": 7822,
      "프": 7823,
      "픈": 7824,
      "플": 7825,
      "피": 7826,
      "필": 7827,
      "핑": 7828,
      "하": 7829,
      "학": 7830,
      "한": 7831,
      "할": 7832,
      "함": 7833,
      "합": 7834,
      "항": 7835,
      "해": 7836,
      "햇": 7837,
      "했": 7838,
      "행": 7839,
      "향": 7840,
      "허": 7841,
      "헌": 7842,
      "헤": 7843,
      "헬": 7844,
      "혁": 7845,
      "현": 7846,
      "협": 7847,
      "형": 7848,
      "혜": 7849,
      "호": 7850,
      "혼": 7851,
      "홀": 7852,
      "홉": 7853,
      "홍": 7854,
      "화": 7855,
      "환": 7856,
      "활": 7857,
      "황": 7858,
      "회": 7859,
      "효": 7860,
      "후": 7861,
      "훈": 7862,
      "휘": 7863,
      "휴": 7864,
      "흐": 7865,
      "흔": 7866,
      "흥": 7867,
      "희": 7868,
      "히": 7869,
      "힐": 7870,
      "힘": 7871,
      "": 7872,
      "": 7873,
      "﨑": 7874,
      "ﬁ": 7875,
      "ﬂ": 7876,
      "︎": 7877,
      "️": 7878,
      "︠": 7879,
      "︡": 7880,
      "﹐": 7881,
      "ﺏ": 7882,
      "ﺒ": 7883,
      "ﺕ": 7884,
      "ﺝ": 7885,
      "ﺡ": 7886,
      "ﺥ": 7887,
      "ﺯ": 7888,
      "ﺱ": 7889,
      "ﺵ": 7890,
      "ﻉ": 7891,
      "ﻕ": 7892,
      "ﻙ": 7893,
      "ﻝ": 7894,
      "ﻡ": 7895,
      "ﻥ": 7896,
      "ﻱ": 7897,
      "ﻳ": 7898,
      "ﻴ": 7899,
      "﻿": 7900,
      "！": 7901,
      "＃": 7902,
      "＆": 7903,
      "（": 7904,
      "）": 7905,
      "＊": 7906,
      "＋": 7907,
      "，": 7908,
      "－": 7909,
      "／": 7910,
      "０": 7911,
      "１": 7912,
      "２": 7913,
      "３": 7914,
      "４": 7915,
      "５": 7916,
      "８": 7917,
      "：": 7918,
      "；": 7919,
      "＜": 7920,
      "＝": 7921,
      "＞": 7922,
      "？": 7923,
      "Ａ": 7924,
      "Ｂ": 7925,
      "Ｃ": 7926,
      "Ｄ": 7927,
      "Ｅ": 7928,
      "Ｈ": 7929,
      "Ｋ": 7930,
      "Ｍ": 7931,
      "Ｎ": 7932,
      "Ｏ": 7933,
      "Ｐ": 7934,
      "Ｒ": 7935,
      "Ｓ": 7936,
      "Ｔ": 7937,
      "Ｕ": 7938,
      "Ｖ": 7939,
      "Ｗ": 7940,
      "Ｘ": 7941,
      "Ｚ": 7942,
      "［": 7943,
      "＼": 7944,
      "］": 7945,
      "ａ": 7946,
      "ｂ": 7947,
      "ｄ": 7948,
      "ｅ": 7949,
      "ｉ": 7950,
      "ｌ": 7951,
      "ｎ": 7952,
      "ｏ": 7953,
      "ｒ": 7954,
      "ｓ": 7955,
      "ｕ": 7956,
      "ｖ": 7957,
      "ｙ": 7958,
      "ｚ": 7959,
      "｛": 7960,
      "｝": 7961,
      "～": 7962,
      "｢": 7963,
      "｣": 7964,
      "･": 7965,
      "ｰ": 7966,
      "ｱ": 7967,
      "ｲ": 7968,
      "ｽ": 7969,
      "ｾ": 7970,
      "ﾄ": 7971,
      "ﾉ": 7972,
      "ﾐ": 7973,
      "ﾓ": 7974,
      "ﾛ": 7975,
      "ﾞ": 7976,
      "￥": 7977,
      "￼": 7978,
      "�": 7979,
      "𐊀": 7980,
      "𐊏": 7981,
      "𐊑": 7982,
      "𐊕": 7983,
      "𐌰": 7984,
      "𐌲": 7985,
      "𐌳": 7986,
      "𐌶": 7987,
      "𐌹": 7988,
      "𐌺": 7989,
      "𐌿": 7990,
      "𐍂": 7991,
      "𐍃": 7992,
      "𐍄": 7993,
      "𐍉": 7994,
      "𐒀": 7995,
      "𐒈": 7996,
      "𐒋": 7997,
      "𐒑": 7998,
      "𐒒": 7999,
      "𐒕": 8000,
      "𐒘": 8001,
      "𐒛": 8002,
      "𐤁": 8003,
      "𐤃": 8004,
      "𐤅": 8005,
      "𐤉": 8006,
      "𐤊": 8007,
      "𐤌": 8008,
      "𐤍": 8009,
      "𐤏": 8010,
      "𐤐": 8011,
      "𐤑": 8012,
      "𐤓": 8013,
      "𐨀": 8014,
      "𐨅": 8015,
      "𐨐": 8016,
      "𐨑": 8017,
      "𐨒": 8018,
      "𐨓": 8019,
      "𐨗": 8020,
      "𐨟": 8021,
      "𐨠": 8022,
      "𐨢": 8023,
      "𐨣": 8024,
      "𐨤": 8025,
      "𐨦": 8026,
      "𐨨": 8027,
      "𐨩": 8028,
      "𐨪": 8029,
      "𐨫": 8030,
      "𐨬": 8031,
      "𐨭": 8032,
      "𐨮": 8033,
      "𐨯": 8034,
      "𐨱": 8035,
      "𐰆": 8036,
      "𐰉": 8037,
      "𐰑": 8038,
      "𐰔": 8039,
      "𐰣": 8040,
      "𐰸": 8041,
      "𐰺": 8042,
      "𐱃": 8043,
      "𑀅": 8044,
      "𑀏": 8045,
      "𑀓": 8046,
      "𑀔": 8047,
      "𑀕": 8048,
      "𑀖": 8049,
      "𑀚": 8050,
      "𑀢": 8051,
      "𑀣": 8052,
      "𑀥": 8053,
      "𑀦": 8054,
      "𑀧": 8055,
      "𑀩": 8056,
      "𑀫": 8057,
      "𑀬": 8058,
      "𑀭": 8059,
      "𑀮": 8060,
      "𑀯": 8061,
      "𑀰": 8062,
      "𑀱": 8063,
      "𑀲": 8064,
      "𑀳": 8065,
      "𒀀": 8066,
      "𒀝": 8067,
      "𒀭": 8068,
      "𒁀": 8069,
      "𒁺": 8070,
      "𒁾": 8071,
      "𒂍": 8072,
      "𒂗": 8073,
      "𒂠": 8074,
      "𒂦": 8075,
      "𒃶": 8076,
      "𒄄": 8077,
      "𒄭": 8078,
      "𒄷": 8079,
      "𒅗": 8080,
      "𒅤": 8081,
      "𒅴": 8082,
      "𒆠": 8083,
      "𒆤": 8084,
      "𒆪": 8085,
      "𒆬": 8086,
      "𒈗": 8087,
      "𒈨": 8088,
      "𒈾": 8089,
      "𒉄": 8090,
      "𒉈": 8091,
      "𒉽": 8092,
      "𒉿": 8093,
      "𒊏": 8094,
      "𒊑": 8095,
      "𒊩": 8096,
      "𒋀": 8097,
      "𒋗": 8098,
      "𒋛": 8099,
      "𒋢": 8100,
      "𒋾": 8101,
      "𒌆": 8102,
      "𒌋": 8103,
      "𒌌": 8104,
      "𒌍": 8105,
      "𒌑": 8106,
      "𒌨": 8107,
      "𒍠": 8108,
      "𒍣": 8109,
      "𒎌": 8110,
      "𓃀": 8111,
      "𓄥": 8112,
      "𓅐": 8113,
      "𓅭": 8114,
      "𓆤": 8115,
      "𓆥": 8116,
      "𓇉": 8117,
      "𓇑": 8118,
      "𓇓": 8119,
      "𓇾": 8120,
      "𓇿": 8121,
      "𓈅": 8122,
      "𓈖": 8123,
      "𓈠": 8124,
      "𓈡": 8125,
      "𓈢": 8126,
      "𓈣": 8127,
      "𓈤": 8128,
      "𓈦": 8129,
      "𓈧": 8130,
      "𓈨": 8131,
      "𓈩": 8132,
      "𓈪": 8133,
      "𓈫": 8134,
      "𓈬": 8135,
      "𓈭": 8136,
      "𓈮": 8137,
      "𓈯": 8138,
      "𓈰": 8139,
      "𓈱": 8140,
      "𓈳": 8141,
      "𓈴": 8142,
      "𓈵": 8143,
      "𓈶": 8144,
      "𓈷": 8145,
      "𓈸": 8146,
      "𓈹": 8147,
      "𓈺": 8148,
      "𓈻": 8149,
      "𓈼": 8150,
      "𓈽": 8151,
      "𓈾": 8152,
      "𓈿": 8153,
      "𓉁": 8154,
      "𓉃": 8155,
      "𓉄": 8156,
      "𓉅": 8157,
      "𓉆": 8158,
      "𓉇": 8159,
      "𓉈": 8160,
      "𓉉": 8161,
      "𓉋": 8162,
      "𓉌": 8163,
      "𓉍": 8164,
      "𓉎": 8165,
      "𓉐": 8166,
      "𓉺": 8167,
      "𓊖": 8168,
      "𓋍": 8169,
      "𓋑": 8170,
      "𓋔": 8171,
      "𓋖": 8172,
      "𓌂": 8173,
      "𓍿": 8174,
      "𓏌": 8175,
      "𓏏": 8176,
      "𓏠": 8177,
      "𓏤": 8178,
      "𓏭": 8179,
      "𓏰": 8180,
      "𓐍": 8181,
      "𝄇": 8182,
      "𝌀": 8183,
      "𝑂": 8184,
      "𝑅": 8185,
      "𝑚": 8186,
      "𝑢": 8187,
      "𝔸": 8188,
      "𝕂": 8189,
      "𝕰": 8190,
      "𝕶": 8191,
      "𝖆": 8192,
      "𝖇": 8193,
      "𝖉": 8194,
      "𝖊": 8195,
      "𝖌": 8196,
      "𝖎": 8197,
      "𝖐": 8198,
      "𝖑": 8199,
      "𝖒": 8200,
      "𝖓": 8201,
      "𝖔": 8202,
      "𝖗": 8203,
      "𝖙": 8204,
      "𝖚": 8205,
      "𝖛": 8206,
      "𝖞": 8207,
      "𞤄": 8208,
      "𞤢": 8209,
      "𞤥": 8210,
      "𞤮": 8211,
      "𞤳": 8212,
      "🇦": 8213,
      "🇧": 8214,
      "🇨": 8215,
      "🇩": 8216,
      "🇪": 8217,
      "🇫": 8218,
      "🇬": 8219,
      "🇭": 8220,
      "🇮": 8221,
      "🇰": 8222,
      "🇲": 8223,
      "🇳": 8224,
      "🇵": 8225,
      "🇷": 8226,
      "🇸": 8227,
      "🇹": 8228,
      "🇺": 8229,
      "🇻": 8230,
      "🇿": 8231,
      "😁": 8232,
      "🜨": 8233,
      "🝻": 8234,
      "🝼": 8235,
      "🝽": 8236,
      "🝾": 8237,
      "🝿": 8238,
      "𡨸": 8239,
      "en": 8240,
      "in": 8241,
      "ta": 8242,
      "an": 8243,
      "is": 8244,
      "on": 8245,
      "al": 8246,
      "ja": 8247,
      "el": 8248,
      "sa": 8249,
      "it": 8250,
      "si": 8251,
      "ti": 8252,
      "ka": 8253,
      "ku": 8254,
      "er": 8255,
      "et": 8256,
      "ol": 8257,
      "es": 8258,
      "la": 8259,
      "va": 8260,
      "tu": 8261,
      "än": 8262,
      "ma": 8263,
      "il": 8264,
      "''": 8265,
      "20": 8266,
      "19": 8267,
      "ko": 8268,
      "to": 8269,
      "tä": 8270,
      "us": 8271,
      "ar": 8272,
      "jo": 8273,
      "uo": 8274,
      "ki": 8275,
      "te": 8276,
      "as": 8277,
      "un": 8278,
      "le": 8279,
      "ut": 8280,
      "ik": 8281,
      "ra": 8282,
      "im": 8283,
      "ty": 8284,
      "ks": 8285,
      "os": 8286,
      "ul": 8287,
      "ri": 8288,
      "inen": 8289,
      "200": 8290,
      "lä": 8291,
      "ksi": 8292,
      "sä": 8293,
      "oli": 8294,
      "or": 8295,
      "vi": 8296,
      "een": 8297,
      "se": 8298,
      "den": 8299,
      "uta": 8300,
      "jä": 8301,
      "li": 8302,
      "na": 8303,
      "pa": 8304,
      "kä": 8305,
      "mi": 8306,
      "ur": 8307,
      "vä": 8308,
      "he": 8309,
      "mu": 8310,
      "vat": 8311,
      "kuuta": 8312,
      "lo": 8313,
      "mä": 8314,
      "ke": 8315,
      "ista": 8316,
      "yt": 8317,
      "ala": 8318,
      "yö": 8319,
      "ia": 8320,
      "ssa": 8321,
      "ot": 8322,
      "tiin": 8323,
      "val": 8324,
      "at": 8325,
      "201": 8326,
      "pi": 8327,
      "lis": 8328,
      "pu": 8329,
      "pä": 8330,
      "issa": 8331,
      "uon": 8332,
      "ro": 8333,
      "ei": 8334,
      "vo": 8335,
      "tel": 8336,
      "ys": 8337,
      "kan": 8338,
      "hän": 8339,
      "hd": 8340,
      "vuo": 8341,
      "man": 8342,
      "isen": 8343,
      "ha": 8344,
      "op": 8345,
      "ten": 8346,
      "sta": 8347,
      "uonna": 8348,
      "men": 8349,
      "ir": 8350,
      "kun": 8351,
      "kin": 8352,
      "ed": 8353,
      "am": 8354,
      "per": 8355,
      "sin": 8356,
      "myö": 8357,
      "uu": 8358,
      "00": 8359,
      "199": 8360,
      "18": 8361,
      "yh": 8362,
      "van": 8363,
      "utta": 8364,
      "ne": 8365,
      "su": 8366,
      "em": 8367,
      "so": 8368,
      "aa": 8369,
      "essa": 8370,
      "lu": 8371,
      "re": 8372,
      "ch": 8373,
      "vuonna": 8374,
      "kau": 8375,
      "ella": 8376,
      "min": 8377,
      "esta": 8378,
      "jan": 8379,
      "taa": 8380,
      "ai": 8381,
      "isi": 8382,
      "pää": 8383,
      "ky": 8384,
      "ksen": 8385,
      "sen": 8386,
      "ettiin": 8387,
      "myös": 8388,
      "assa": 8389,
      "Hän": 8390,
      "ist": 8391,
      "pal": 8392,
      "oh": 8393,
      "yn": 8394,
      "ih": 8395,
      "om": 8396,
      "itä": 8397,
      "pel": 8398,
      "alla": 8399,
      "maan": 8400,
      "ita": 8401,
      "kir": 8402,
      "ni": 8403,
      "ina": 8404,
      "mis": 8405,
      "ken": 8406,
      "mer": 8407,
      "ussa": 8408,
      "itti": 8409,
      "ran": 8410,
      "id": 8411,
      "taan": 8412,
      "ulu": 8413,
      "kes": 8414,
      "joka": 8415,
      "lan": 8416,
      "nä": 8417,
      "kaan": 8418,
      "ter": 8419,
      "toim": 8420,
      "ing": 8421,
      "198": 8422,
      "tan": 8423,
      "suo": 8424,
      "ve": 8425,
      "maa": 8426,
      "tun": 8427,
      "10": 8428,
      "kil": 8429,
      "no": 8430,
      "uk": 8431,
      "aan": 8432,
      "ään": 8433,
      "alu": 8434,
      "Ka": 8435,
      "mat": 8436,
      "Suo": 8437,
      "hti": 8438,
      "eli": 8439,
      "että": 8440,
      "illa": 8441,
      "usta": 8442,
      "kon": 8443,
      "ker": 8444,
      "ho": 8445,
      "vät": 8446,
      "jen": 8447,
      "iden": 8448,
      "teen": 8449,
      "tui": 8450,
      "all": 8451,
      "sy": 8452,
      "197": 8453,
      "Sa": 8454,
      "elle": 8455,
      "tar": 8456,
      "ole": 8457,
      "tö": 8458,
      "ille": 8459,
      "istä": 8460,
      "17": 8461,
      "ud": 8462,
      "llä": 8463,
      "po": 8464,
      "essä": 8465,
      "nim": 8466,
      "ad": 8467,
      "ovat": 8468,
      "ura": 8469,
      "ellä": 8470,
      "ver": 8471,
      "15": 8472,
      "um": 8473,
      "ettu": 8474,
      "käyt": 8475,
      "Se": 8476,
      "),": 8477,
      "mmä": 8478,
      "puol": 8479,
      "isto": 8480,
      "sekä": 8481,
      "tyi": 8482,
      "tti": 8483,
      "itta": 8484,
      "12": 8485,
      "An": 8486,
      "är": 8487,
      "16": 8488,
      "esti": 8489,
      "ili": 8490,
      "jäl": 8491,
      "pun": 8492,
      "ton": 8493,
      "14": 8494,
      "kais": 8495,
      "osa": 8496,
      "alainen": 8497,
      "esi": 8498,
      "ak": 8499,
      "de": 8500,
      "196": 8501,
      "mutta": 8502,
      "itse": 8503,
      "elo": 8504,
      "ön": 8505,
      "kol": 8506,
      "tai": 8507,
      "ven": 8508,
      "La": 8509,
      "Al": 8510,
      "simmä": 8511,
      "di": 8512,
      "eri": 8513,
      "jär": 8514,
      "Mar": 8515,
      "rin": 8516,
      "ittä": 8517,
      "jon": 8518,
      "jat": 8519,
      "hi": 8520,
      "elä": 8521,
      "mo": 8522,
      "issä": 8523,
      "keen": 8524,
      "tin": 8525,
      "ce": 8526,
      "pan": 8527,
      "par": 8528,
      "So": 8529,
      "13": 8530,
      "hu": 8531,
      "mon": 8532,
      "ssä": 8533,
      "lin": 8534,
      "iset": 8535,
      "mar": 8536,
      "män": 8537,
      "var": 8538,
      "kanssa": 8539,
      "nan": 8540,
      "ig": 8541,
      "eksi": 8542,
      "oll": 8543,
      "vasta": 8544,
      "hte": 8545,
      "met": 8546,
      "ikan": 8547,
      "194": 8548,
      "jul": 8549,
      "maal": 8550,
      "kas": 8551,
      "itu": 8552,
      "han": 8553,
      "Ro": 8554,
      "gin": 8555,
      "hta": 8556,
      "195": 8557,
      "ell": 8558,
      "Ma": 8559,
      "alle": 8560,
      "san": 8561,
      "me": 8562,
      "olla": 8563,
      "allis": 8564,
      "ic": 8565,
      "yr": 8566,
      "sija": 8567,
      "22": 8568,
      "eh": 8569,
      "etta": 8570,
      "kuva": 8571,
      "iten": 8572,
      "of": 8573,
      "vin": 8574,
      "luv": 8575,
      "kuussa": 8576,
      "jälkeen": 8577,
      "kka": 8578,
      "ensimmä": 8579,
      "isä": 8580,
      "saa": 8581,
      "estä": 8582,
      "hy": 8583,
      "11": 8584,
      "ity": 8585,
      "ien": 8586,
      "isten": 8587,
      "asi": 8588,
      "las": 8589,
      "kko": 8590,
      "Ra": 8591,
      "193": 8592,
      "iv": 8593,
      "ras": 8594,
      "inä": 8595,
      "kul": 8596,
      "ber": 8597,
      "alo": 8598,
      "and": 8599,
      "vel": 8600,
      "sai": 8601,
      "NE": 8602,
      "kor": 8603,
      "The": 8604,
      "yli": 8605,
      "son": 8606,
      "kaa": 8607,
      "voi": 8608,
      "ian": 8609,
      "Hel": 8610,
      "21": 8611,
      "25": 8612,
      "23": 8613,
      "sar": 8614,
      "Suomen": 8615,
      "To": 8616,
      "lop": 8617,
      "use": 8618,
      "teli": 8619,
      "enn": 8620,
      "Le": 8621,
      "alue": 8622,
      "ossa": 8623,
      "En": 8624,
      "isia": 8625,
      "ulla": 8626,
      "perus": 8627,
      "ikki": 8628,
      "mikuuta": 8629,
      "iin": 8630,
      "itt": 8631,
      "kaupun": 8632,
      "ää": 8633,
      "asta": 8634,
      "Ar": 8635,
      "ck": 8636,
      "pin": 8637,
      "tam": 8638,
      "ike": 8639,
      "tal": 8640,
      "stä": 8641,
      "toimi": 8642,
      "tus": 8643,
      "tion": 8644,
      "24": 8645,
      "pit": 8646,
      "Ne": 8647,
      "hel": 8648,
      ").": 8649,
      "ari": 8650,
      "Ko": 8651,
      "tuu": 8652,
      "seura": 8653,
      "Vuonna": 8654,
      "har": 8655,
      "mukaan": 8656,
      "suom": 8657,
      "etty": 8658,
      "läh": 8659,
      "jouk": 8660,
      "kos": 8661,
      "raken": 8662,
      "vuoden": 8663,
      "hem": 8664,
      "'',": 8665,
      "Jo": 8666,
      "NEA": 8667,
      "usi": 8668,
      "Pe": 8669,
      "uko": 8670,
      "suur": 8671,
      "2000": 8672,
      "ts": 8673,
      "jonka": 8674,
      "joit": 8675,
      "cor": 8676,
      "og": 8677,
      "tta": 8678,
      "30": 8679,
      "kki": 8680,
      "isti": 8681,
      "ym": 8682,
      "ie": 8683,
      "yl": 8684,
      "tr": 8685,
      "työ": 8686,
      "jossa": 8687,
      "illä": 8688,
      "luo": 8689,
      "osta": 8690,
      "ihin": 8691,
      "ikka": 8692,
      "muo": 8693,
      "yhd": 8694,
      "hen": 8695,
      "In": 8696,
      "2006": 8697,
      "2005": 8698,
      "syys": 8699,
      "inn": 8700,
      "telu": 8701,
      "tyy": 8702,
      "Lä": 8703,
      "der": 8704,
      "siir": 8705,
      "teh": 8706,
      "2001": 8707,
      "26": 8708,
      "tää": 8709,
      "kö": 8710,
      "eet": 8711,
      "riä": 8712,
      "Ta": 8713,
      "ali": 8714,
      "hänen": 8715,
      "27": 8716,
      "28": 8717,
      "kuiten": 8718,
      "2008": 8719,
      "iksi": 8720,
      "uks": 8721,
      "kar": 8722,
      "Helsin": 8723,
      "ans": 8724,
      "tila": 8725,
      "yd": 8726,
      "sit": 8727,
      "2002": 8728,
      "Pa": 8729,
      "kap": 8730,
      "Yhd": 8731,
      "yksi": 8732,
      "2007": 8733,
      "**": 8734,
      "od": 8735,
      "ino": 8736,
      "sina": 8737,
      "vas": 8738,
      "uus": 8739,
      "loka": 8740,
      "kilpa": 8741,
      "uksen": 8742,
      "unn": 8743,
      "Vuo": 8744,
      "liit": 8745,
      "kit": 8746,
      "lle": 8747,
      "nyt": 8748,
      "vaa": 8749,
      "Ja": 8750,
      "teki": 8751,
      "len": 8752,
      "jän": 8753,
      "He": 8754,
      "29": 8755,
      "her": 8756,
      "tut": 8757,
      "olivat": 8758,
      "tor": 8759,
      "noin": 8760,
      "koko": 8761,
      "hteet": 8762,
      "näyt": 8763,
      "ann": 8764,
      "vai": 8765,
      "julkais": 8766,
      "Tä": 8767,
      "LI": 8768,
      "massa": 8769,
      "hall": 8770,
      "000": 8771,
      "ee": 8772,
      "valta": 8773,
      "2004": 8774,
      "sia": 8775,
      "isesti": 8776,
      "do": 8777,
      "koi": 8778,
      "tiet": 8779,
      "2009": 8780,
      "Socor": 8781,
      "Socorro": 8782,
      "Re": 8783,
      "NEAR": 8784,
      "LINEAR": 8785,
      "kirja": 8786,
      "sijaitse": 8787,
      "syyskuuta": 8788,
      "Vi": 8789,
      "vir": 8790,
      "Su": 8791,
      "laa": 8792,
      "ge": 8793,
      "(''": 8794,
      "hin": 8795,
      "kuin": 8796,
      "Li": 8797,
      "ria": 8798,
      "muun": 8799,
      "tuli": 8800,
      "2003": 8801,
      "isin": 8802,
      "''.": 8803,
      "ola": 8804,
      "johta": 8805,
      "eita": 8806,
      "utu": 8807,
      "määr": 8808,
      "ilu": 8809,
      "pr": 8810,
      "uud": 8811,
      "Suom": 8812,
      "olle": 8813,
      "ika": 8814,
      "aikan": 8815,
      "asti": 8816,
      "io": 8817,
      "ksia": 8818,
      "Mo": 8819,
      "pp": 8820,
      "2010": 8821,
      "dan": 8822,
      "nel": 8823,
      "syn": 8824,
      "iste": 8825,
      "lokakuuta": 8826,
      "uh": 8827,
      "ilija": 8828,
      "yle": 8829,
      "maalis": 8830,
      "joukku": 8831,
      "pien": 8832,
      "kaksi": 8833,
      "ope": 8834,
      "ill": 8835,
      "sisä": 8836,
      "lö": 8837,
      "vuod": 8838,
      "tapa": 8839,
      "muassa": 8840,
      "ard": 8841,
      "est": 8842,
      "kunta": 8843,
      "ollut": 8844,
      "ag": 8845,
      "yky": 8846,
      "kuitenkin": 8847,
      "jot": 8848,
      "au": 8849,
      "ase": 8850,
      "Yhdys": 8851,
      "minen": 8852,
      "enä": 8853,
      "uro": 8854,
      "yhte": 8855,
      "50": 8856,
      "ikä": 8857,
      "tio": 8858,
      "Lähteet": 8859,
      "kset": 8860,
      "Te": 8861,
      "voit": 8862,
      "Kes": 8863,
      "kseen": 8864,
      "jaa": 8865,
      "2011": 8866,
      "joulu": 8867,
      "ikko": 8868,
      "aikana": 8869,
      "the": 8870,
      "Lo": 8871,
      "voitti": 8872,
      "tunn": 8873,
      "keh": 8874,
      "jana": 8875,
      "utti": 8876,
      "mp": 8877,
      "ime": 8878,
      "alta": 8879,
      "da": 8880,
      "sel": 8881,
      "marras": 8882,
      "Joh": 8883,
      "vain": 8884,
      "Ku": 8885,
      "Kar": 8886,
      "kel": 8887,
      "mään": 8888,
      "kesä": 8889,
      "kunnan": 8890,
      "II": 8891,
      "Si": 8892,
      "kiel": 8893,
      "ilman": 8894,
      "yy": 8895,
      "kunn": 8896,
      "kuulu": 8897,
      "ent": 8898,
      "alais": 8899,
      "ine": 8900,
      "loin": 8901,
      "uuden": 8902,
      "mia": 8903,
      "iso": 8904,
      "rakenn": 8905,
      "1999": 8906,
      "Spa": 8907,
      "mista": 8908,
      "atch": 8909,
      "vos": 8910,
      "ry": 8911,
      "suomalainen": 8912,
      "bu": 8913,
      "Space": 8914,
      "väl": 8915,
      "'')": 8916,
      "järj": 8917,
      "maaliskuuta": 8918,
      "etään": 8919,
      "190": 8920,
      "län": 8921,
      "pe": 8922,
      "2012": 8923,
      "kappal": 8924,
      "toi": 8925,
      "kuu": 8926,
      "huhti": 8927,
      "Par": 8928,
      "je": 8929,
      "sarja": 8930,
      "vuosina": 8931,
      "via": 8932,
      "kat": 8933,
      "Ha": 8934,
      "yhty": 8935,
      "ite": 8936,
      "din": 8937,
      "hemmin": 8938,
      "40": 8939,
      "jotka": 8940,
      "Peak": 8941,
      "Kitt": 8942,
      "hä": 8943,
      "mm": 8944,
      "lisä": 8945,
      "watch": 8946,
      "muod": 8947,
      "kus": 8948,
      "ollis": 8949,
      "mas": 8950,
      "jää": 8951,
      "ren": 8952,
      "isiin": 8953,
      "Na": 8954,
      "Spacewatch": 8955,
      "2013": 8956,
      "poh": 8957,
      "tanut": 8958,
      "Val": 8959,
      "run": 8960,
      "tuo": 8961,
      "2014": 8962,
      "Kan": 8963,
      "ellis": 8964,
      "vy": 8965,
      "kauden": 8966,
      "vastaan": 8967,
      "von": 8968,
      "vän": 8969,
      "Sen": 8970,
      "esiin": 8971,
      "touko": 8972,
      "marraskuuta": 8973,
      "toimin": 8974,
      "iti": 8975,
      "tur": 8976,
      "talo": 8977,
      "Tur": 8978,
      "hden": 8979,
      "asu": 8980,
      "ju": 8981,
      "kana": 8982,
      "tammikuuta": 8983,
      "35": 8984,
      "ll": 8985,
      "eiden": 8986,
      "kiksi": 8987,
      "muu": 8988,
      "ip": 8989,
      "joulukuuta": 8990,
      "pala": 8991,
      "luvun": 8992,
      "tois": 8993,
      "nin": 8994,
      "for": 8995,
      "kuul": 8996,
      "elta": 8997,
      "Da": 8998,
      "etti": 8999,
      "Ch": 9000,
      "ale": 9001,
      "2015": 9002,
      "helmikuuta": 9003,
      "bo": 9004,
      "up": 9005,
      "olloin": 9006,
      "saar": 9007,
      "tua": 9008,
      "ga": 9009,
      "valmis": 9010,
      "neet": 9011,
      "lla": 9012,
      "uran": 9013,
      "heinä": 9014,
      "merkiksi": 9015,
      "st": 9016,
      "Bo": 9017,
      "ero": 9018,
      "elokuuta": 9019,
      "por": 9020,
      "tunut": 9021,
      "pro": 9022,
      "jäsen": 9023,
      "mies": 9024,
      "HL": 9025,
      "Va": 9026,
      "co": 9027,
      "alan": 9028,
      "alku": 9029,
      "istö": 9030,
      "korke": 9031,
      "ons": 9032,
      "yliop": 9033,
      "huhtikuuta": 9034,
      "iä": 9035,
      "omet": 9036,
      "ug": 9037,
      "2016": 9038,
      "mil": 9039,
      "No": 9040,
      "luvulla": 9041,
      "itys": 9042,
      "otta": 9043,
      "alli": 9044,
      "Me": 9045,
      "utui": 9046,
      "joh": 9047,
      "Car": 9048,
      "pelaa": 9049,
      "Per": 9050,
      "ito": 9051,
      "oike": 9052,
      "sijoit": 9053,
      "jel": 9054,
      "nyky": 9055,
      "onn": 9056,
      "kuten": 9057,
      "paa": 9058,
      "valla": 9059,
      "pelasi": 9060,
      "ue": 9061,
      "perä": 9062,
      "iseen": 9063,
      "misen": 9064,
      "seuraa": 9065,
      "2017": 9066,
      "*''": 9067,
      "paik": 9068,
      "Ti": 9069,
      "Mon": 9070,
      "alka": 9071,
      "kään": 9072,
      "60": 9073,
      "Ruo": 9074,
      "San": 9075,
      "istu": 9076,
      "tele": 9077,
      "ff": 9078,
      "De": 9079,
      "Venä": 9080,
      "kirjo": 9081,
      "189": 9082,
      "ba": 9083,
      "Mu": 9084,
      "1998": 9085,
      "For": 9086,
      "Es": 9087,
      "ulta": 9088,
      "Har": 9089,
      "Lu": 9090,
      "metriä": 9091,
      "olog": 9092,
      "kaud": 9093,
      "Lem": 9094,
      "kkä": 9095,
      "vien": 9096,
      "tynyt": 9097,
      "kaikki": 9098,
      "iri": 9099,
      "toa": 9100,
      "visi": 9101,
      "Suomessa": 9102,
      "ula": 9103,
      "toukokuuta": 9104,
      "gen": 9105,
      "kia": 9106,
      "elokuva": 9107,
      "sijaitsee": 9108,
      "elin": 9109,
      "poli": 9110,
      "2019": 9111,
      "th": 9112,
      "tia": 9113,
      "Er": 9114,
      "100": 9115,
      "Kir": 9116,
      "ong": 9117,
      "Ca": 9118,
      "Pu": 9119,
      "vaiku": 9120,
      "ksan": 9121,
      "pol": 9122,
      "2018": 9123,
      "Nor": 9124,
      "ensimmäisen": 9125,
      "ru": 9126,
      "ttä": 9127,
      "px": 9128,
      "muut": 9129,
      "ittiin": 9130,
      "Hänen": 9131,
      "pid": 9132,
      "Ba": 9133,
      "ppi": 9134,
      "eltä": 9135,
      "kilomet": 9136,
      "kautta": 9137,
      "kylä": 9138,
      "Tam": 9139,
      "elleen": 9140,
      "38": 9141,
      "itsi": 9142,
      "ensä": 9143,
      "mieh": 9144,
      "sti": 9145,
      "suunn": 9146,
      "hänet": 9147,
      "ennen": 9148,
      "tarko": 9149,
      "31": 9150,
      "isiä": 9151,
      "oma": 9152,
      "ana": 9153,
      "myöhemmin": 9154,
      "eseen": 9155,
      "37": 9156,
      "vää": 9157,
      "era": 9158,
      "hyö": 9159,
      "joukkue": 9160,
      "mesta": 9161,
      "ittaa": 9162,
      "34": 9163,
      "ilta": 9164,
      "Mi": 9165,
      "maailman": 9166,
      "tais": 9167,
      "my": 9168,
      "itus": 9169,
      "sil": 9170,
      "merk": 9171,
      "Co": 9172,
      "36": 9173,
      "Myö": 9174,
      "esimerkiksi": 9175,
      "rat": 9176,
      "kier": 9177,
      "koulu": 9178,
      "ara": 9179,
      "Euro": 9180,
      "Ber": 9181,
      "und": 9182,
      "nuo": 9183,
      "ros": 9184,
      "Mat": 9185,
      "Kun": 9186,
      "Nä": 9187,
      "kuun": 9188,
      "vu": 9189,
      "ger": 9190,
      "sk": 9191,
      "malla": 9192,
      "tutki": 9193,
      "kaupunki": 9194,
      "hde": 9195,
      "lisäksi": 9196,
      "Ri": 9197,
      "jolloin": 9198,
      "määrä": 9199,
      "heinäkuuta": 9200,
      "vuodesta": 9201,
      "uden": 9202,
      "niin": 9203,
      "piir": 9204,
      "yks": 9205,
      "Rans": 9206,
      "päi": 9207,
      "Lemmon": 9208,
      "nen": 9209,
      "alkoi": 9210,
      "päät": 9211,
      "New": 9212,
      "80": 9213,
      "joen": 9214,
      "imo": 9215,
      "ensimmäinen": 9216,
      "saan": 9217,
      "39": 9218,
      "sisäl": 9219,
      "Po": 9220,
      "ryh": 9221,
      "siirtyi": 9222,
      "itte": 9223,
      "aika": 9224,
      "Ho": 9225,
      "kilpailu": 9226,
      "kot": 9227,
      "sitä": 9228,
      "toon": 9229,
      "vaan": 9230,
      "ikin": 9231,
      "osallis": 9232,
      "välis": 9233,
      "ympä": 9234,
      "tied": 9235,
      "MM": 9236,
      "Helsingin": 9237,
      "tori": 9238,
      "Is": 9239,
      "matta": 9240,
      "kesäkuuta": 9241,
      "ruo": 9242,
      "av": 9243,
      "illis": 9244,
      "sodan": 9245,
      "näytteli": 9246,
      "onin": 9247,
      "Ed": 9248,
      "ca": 9249,
      "toja": 9250,
      "vet": 9251,
      "Ai": 9252,
      "mahd": 9253,
      "änyt": 9254,
      "Ni": 9255,
      "tapah": 9256,
      "neljä": 9257,
      "teo": 9258,
      "Ju": 9259,
      "mmen": 9260,
      "pia": 9261,
      "ottelu": 9262,
      "uuri": 9263,
      "emmin": 9264,
      "idaan": 9265,
      "puolella": 9266,
      "sillä": 9267,
      "ajan": 9268,
      "Por": 9269,
      "vaih": 9270,
      "mistä": 9271,
      "2020": 9272,
      "Pet": 9273,
      "Wil": 9274,
      "otti": 9275,
      "tule": 9276,
      "Ki": 9277,
      "suunnit": 9278,
      "1990": 9279,
      "ottel": 9280,
      "Lin": 9281,
      "ulun": 9282,
      "kolme": 9283,
      "erin": 9284,
      "etu": 9285,
      "isa": 9286,
      "liig": 9287,
      "ulko": 9288,
      "itettiin": 9289,
      "ht": 9290,
      "ystä": 9291,
      "urin": 9292,
      "ona": 9293,
      "Ke": 9294,
      "John": 9295,
      "Kor": 9296,
      "voim": 9297,
      "pys": 9298,
      "ly": 9299,
      "una": 9300,
      "musi": 9301,
      "70": 9302,
      "vil": 9303,
      "ris": 9304,
      "albu": 9305,
      "go": 9306,
      "mes": 9307,
      "viime": 9308,
      "eloku": 9309,
      "perin": 9310,
      "edus": 9311,
      "1997": 9312,
      "glan": 9313,
      "Vä": 9314,
      "järven": 9315,
      "Euroop": 9316,
      "org": 9317,
      "alueella": 9318,
      "yhti": 9319,
      "by": 9320,
      "vuotta": 9321,
      "alaisen": 9322,
      "tettiin": 9323,
      "SM": 9324,
      "Fran": 9325,
      "iston": 9326,
      "henkil": 9327,
      "Pal": 9328,
      "Ale": 9329,
      "45": 9330,
      "lai": 9331,
      "imi": 9332,
      "Pi": 9333,
      "kaupungin": 9334,
      "isty": 9335,
      "Jär": 9336,
      "muodos": 9337,
      "tali": 9338,
      "lähti": 9339,
      "oa": 9340,
      "liik": 9341,
      "Il": 9342,
      "jota": 9343,
      "Man": 9344,
      "jois": 9345,
      "laj": 9346,
      "saav": 9347,
      "sio": 9348,
      "mien": 9349,
      "ua": 9350,
      "alueen": 9351,
      "mus": 9352,
      "kuuluu": 9353,
      "neksi": 9354,
      "pitä": 9355,
      "viä": 9356,
      "aihe": 9357,
      "El": 9358,
      "onen": 9359,
      "2021": 9360,
      "ena": 9361,
      "ide": 9362,
      "Be": 9363,
      "tien": 9364,
      "kiin": 9365,
      "histo": 9366,
      "1996": 9367,
      "kr": 9368,
      "ittää": 9369,
      "laulu": 9370,
      "kaudella": 9371,
      "voidaan": 9372,
      "berg": 9373,
      "188": 9374,
      "vio": 9375,
      "johtaja": 9376,
      "kansa": 9377,
      "Sch": 9378,
      "br": 9379,
      "ess": 9380,
      "kusta": 9381,
      "yttä": 9382,
      "1995": 9383,
      "kee": 9384,
      "St": 9385,
      "Bar": 9386,
      "non": 9387,
      "aja": 9388,
      "ile": 9389,
      "Bri": 9390,
      "Th": 9391,
      "sien": 9392,
      "pitkä": 9393,
      "anta": 9394,
      "ham": 9395,
      "juo": 9396,
      "sis": 9397,
      "tär": 9398,
      "estö": 9399,
      "vuoti": 9400,
      "tojen": 9401,
      "Her": 9402,
      "ksa": 9403,
      "ttu": 9404,
      "käyttö": 9405,
      "Vir": 9406,
      "huo": 9407,
      "jät": 9408,
      "saman": 9409,
      "luku": 9410,
      "uvos": 9411,
      "Kat": 9412,
      "33": 9413,
      "Ge": 9414,
      "Br": 9415,
      "ör": 9416,
      "Do": 9417,
      "bi": 9418,
      "henkilö": 9419,
      "yhteis": 9420,
      "vielä": 9421,
      "sano": 9422,
      "be": 9423,
      "ele": 9424,
      "parha": 9425,
      "järvi": 9426,
      "loppu": 9427,
      "yhteen": 9428,
      "tie": 9429,
      "Vuoden": 9430,
      "nö": 9431,
      "joista": 9432,
      "osen": 9433,
      "48": 9434,
      "eivät": 9435,
      "kymmen": 9436,
      "55": 9437,
      "kirkko": 9438,
      "wa": 9439,
      "1980": 9440,
      "tul": 9441,
      "pre": 9442,
      "1994": 9443,
      "Ensimmä": 9444,
      "pain": 9445,
      "kär": 9446,
      "toinen": 9447,
      "Jos": 9448,
      "ilma": 9449,
      "hyvin": 9450,
      "epä": 9451,
      "tämän": 9452,
      "miseen": 9453,
      "julkaistiin": 9454,
      "Van": 9455,
      "hol": 9456,
      "47": 9457,
      "siitä": 9458,
      "mur": 9459,
      "joon": 9460,
      "Ste": 9461,
      "gra": 9462,
      "aloitti": 9463,
      "nimi": 9464,
      "Elo": 9465,
      "mukana": 9466,
      "mei": 9467,
      "aina": 9468,
      "As": 9469,
      "Ad": 9470,
      "ves": 9471,
      "Yhdysval": 9472,
      "Ruot": 9473,
      "kea": 9474,
      "46": 9475,
      "yllä": 9476,
      "Un": 9477,
      "Hen": 9478,
      "hal": 9479,
      "opim": 9480,
      "Kesk": 9481,
      "49": 9482,
      "ssi": 9483,
      "ukka": 9484,
      "nut": 9485,
      "lap": 9486,
      "iseksi": 9487,
      "32": 9488,
      "tyä": 9489,
      "land": 9490,
      "1993": 9491,
      "Je": 9492,
      "päiv": 9493,
      "vuoksi": 9494,
      "miin": 9495,
      "Helsinki": 9496,
      "piste": 9497,
      "ittaja": 9498,
      "joiden": 9499,
      "piiri": 9500,
      "empi": 9501,
      "ppa": 9502,
      "ehd": 9503,
      "keskus": 9504,
      "usein": 9505,
      "kal": 9506,
      "()": 9507,
      "Kau": 9508,
      "edusta": 9509,
      "lainen": 9510,
      "1992": 9511,
      "2022": 9512,
      "oliit": 9513,
      "vey": 9514,
      "Seura": 9515,
      "opis": 9516,
      "yliopisto": 9517,
      "kilometriä": 9518,
      "ituksen": 9519,
      "koska": 9520,
      "les": 9521,
      "90": 9522,
      "Sur": 9523,
      "1970": 9524,
      "vapa": 9525,
      "luon": 9526,
      "olisi": 9527,
      "ang": 9528,
      "main": 9529,
      "Itä": 9530,
      "1991": 9531,
      "tettu": 9532,
      "Pro": 9533,
      "ät": 9534,
      "tehtä": 9535,
      "palvel": 9536,
      "joita": 9537,
      "ani": 9538,
      "toisen": 9539,
      "keli": 9540,
      "peli": 9541,
      "vah": 9542,
      "menta": 9543,
      "Kap": 9544,
      "And": 9545,
      "Yo": 9546,
      "Sal": 9547,
      "ympär": 9548,
      "Lisä": 9549,
      "ivat": 9550,
      "Sta": 9551,
      "lento": 9552,
      "muualla": 9553,
      "akka": 9554,
      "75": 9555,
      "puh": 9556,
      "don": 9557,
      "sarjan": 9558,
      "metrin": 9559,
      "vasti": 9560,
      "keski": 9561,
      "Kr": 9562,
      "qu": 9563,
      "bert": 9564,
      "On": 9565,
      "ers": 9566,
      "one": 9567,
      "etelä": 9568,
      "useita": 9569,
      "uri": 9570,
      "vana": 9571,
      "sken": 9572,
      "hyvä": 9573,
      "ela": 9574,
      "ok": 9575,
      "vih": 9576,
      "tään": 9577,
      "rik": 9578,
      "km": 9579,
      "Poh": 9580,
      "esty": 9581,
      "tusta": 9582,
      "masta": 9583,
      "44": 9584,
      "uttaa": 9585,
      "kis": 9586,
      "kappale": 9587,
      "saat": 9588,
      "olevan": 9589,
      "unt": 9590,
      "kasta": 9591,
      "alin": 9592,
      "siden": 9593,
      "vit": 9594,
      "palkin": 9595,
      "Sam": 9596,
      "Hä": 9597,
      "osti": 9598,
      "tava": 9599,
      "kilpail": 9600,
      "olo": 9601,
      "käsit": 9602,
      "hyökkä": 9603,
      "erity": 9604,
      "95": 9605,
      "186": 9606,
      "joissa": 9607,
      "Var": 9608,
      "kuning": 9609,
      "ylä": 9610,
      "näyttelijä": 9611,
      "työsken": 9612,
      "Venäjän": 9613,
      "josta": 9614,
      "ilmo": 9615,
      "tulo": 9616,
      "histori": 9617,
      "1960": 9618,
      "nuor": 9619,
      "Lisäksi": 9620,
      "yty": 9621,
      "oon": 9622,
      "ci": 9623,
      "kerto": 9624,
      "Kos": 9625,
      "jien": 9626,
      "ds": 9627,
      "mät": 9628,
      "raa": 9629,
      "mikä": 9630,
      "jos": 9631,
      "nat": 9632,
      "oni": 9633,
      "pur": 9634,
      "ava": 9635,
      "kita": 9636,
      "kke": 9637,
      "pallo": 9638,
      "koti": 9639,
      "kaisi": 9640,
      "nimellä": 9641,
      "vallan": 9642,
      "olan": 9643,
      "syö": 9644,
      "Mer": 9645,
      "päivä": 9646,
      "saks": 9647,
      "yhtye": 9648,
      "Ol": 9649,
      "Fr": 9650,
      "tinen": 9651,
      "fe": 9652,
      "56": 9653,
      "suor": 9654,
      "käyttä": 9655,
      "Oy": 9656,
      "lyh": 9657,
      "heesta": 9658,
      "Jul": 9659,
      "1989": 9660,
      "miljoon": 9661,
      "Kol": 9662,
      "muuta": 9663,
      "ab": 9664,
      "oja": 9665,
      "pen": 9666,
      "merkittä": 9667,
      "sopim": 9668,
      "tasa": 9669,
      "oman": 9670,
      "187": 9671,
      "nope": 9672,
      "Itali": 9673,
      "Sc": 9674,
      "Tu": 9675,
      "armei": 9676,
      "änä": 9677,
      "yhdessä": 9678,
      "bur": 9679,
      "its": 9680,
      "Tamper": 9681,
      "jaks": 9682,
      "alussa": 9683,
      "SS": 9684,
      "alaiset": 9685,
      "koon": 9686,
      "hope": 9687,
      "allinen": 9688,
      "kie": 9689,
      "Palo": 9690,
      "Aiheesta": 9691,
      "kerran": 9692,
      "sävel": 9693,
      "suku": 9694,
      "58": 9695,
      "ilmes": 9696,
      "läinen": 9697,
      "Os": 9698,
      "kut": 9699,
      "siin": 9700,
      "valtain": 9701,
      "yys": 9702,
      "hteen": 9703,
      "uutta": 9704,
      "teri": 9705,
      "43": 9706,
      "Yhdysvaltain": 9707,
      "jäi": 9708,
      "suun": 9709,
      "Maa": 9710,
      "res": 9711,
      "essaan": 9712,
      "yhtiö": 9713,
      "Tor": 9714,
      "vuoteen": 9715,
      "isessä": 9716,
      "jalla": 9717,
      "pian": 9718,
      "isissa": 9719,
      "sivat": 9720,
      "1988": 9721,
      "kku": 9722,
      "syntyi": 9723,
      "tuotan": 9724,
      "uni": 9725,
      "gi": 9726,
      "perusta": 9727,
      "sota": 9728,
      "minist": 9729,
      "ser": 9730,
      "57": 9731,
      "tehd": 9732,
      "alaisten": 9733,
      "osto": 9734,
      "Tuo": 9735,
      "nousi": 9736,
      "Vo": 9737,
      "Sar": 9738,
      "kertaa": 9739,
      "heid": 9740,
      "tod": 9741,
      "ast": 9742,
      "bum": 9743,
      "inti": 9744,
      "ment": 9745,
      "esin": 9746,
      "hah": 9747,
      "eikä": 9748,
      "mit": 9749,
      "kassa": 9750,
      "pyr": 9751,
      "ihmis": 9752,
      "yhden": 9753,
      "sijoittui": 9754,
      "Histo": 9755,
      "Myös": 9756,
      "Survey": 9757,
      "sol": 9758,
      "valittiin": 9759,
      "eaa": 9760,
      "johd": 9761,
      "42": 9762,
      "rann": 9763,
      "osan": 9764,
      "1987": 9765,
      "kohta": 9766,
      "art": 9767,
      "NHL": 9768,
      "puoli": 9769,
      "kaik": 9770,
      "mikuussa": 9771,
      "esit": 9772,
      "Mic": 9773,
      "Saksan": 9774,
      "mahdollis": 9775,
      "Tämä": 9776,
      "Yor": 9777,
      "Pel": 9778,
      "kuoli": 9779,
      "mut": 9780,
      "lev": 9781,
      "kirjailija": 9782,
      "ohjel": 9783,
      "aiko": 9784,
      "ihen": 9785,
      "ini": 9786,
      "missä": 9787,
      "lista": 9788,
      "presiden": 9789,
      "itsen": 9790,
      "uusi": 9791,
      "ph": 9792,
      "inin": 9793,
      "vesi": 9794,
      "käytetään": 9795,
      "teke": 9796,
      "vanhem": 9797,
      "ise": 9798,
      "kuole": 9799,
      "yleensä": 9800,
      "ottelua": 9801,
      "ada": 9802,
      "veden": 9803,
      "500": 9804,
      "Etel": 9805,
      "59": 9806,
      "IS": 9807,
      "pinta": 9808,
      "saanut": 9809,
      "dio": 9810,
      "Com": 9811,
      "arvo": 9812,
      "prof": 9813,
      "löy": 9814,
      "1986": 9815,
      "Ander": 9816,
      "mestar": 9817,
      "kans": 9818,
      "aino": 9819,
      "olym": 9820,
      "osallistui": 9821,
      "ron": 9822,
      "väli": 9823,
      "lähtien": 9824,
      "telee": 9825,
      "41": 9826,
      "llis": 9827,
      "wn": 9828,
      "Af": 9829,
      "py": 9830,
      "Char": 9831,
      "yhteensä": 9832,
      "kirjoit": 9833,
      "ttia": 9834,
      "yhtyeen": 9835,
      "kirkon": 9836,
      "tapahtu": 9837,
      "suurin": 9838,
      "Bra": 9839,
      "ark": 9840,
      "sää": 9841,
      "Or": 9842,
      "mio": 9843,
      "Gu": 9844,
      "pohjois": 9845,
      "Hu": 9846,
      "Kappal": 9847,
      "kolman": 9848,
      "aikais": 9849,
      "netaan": 9850,
      "Etelä": 9851,
      "poika": 9852,
      "täjä": 9853,
      "tärke": 9854,
      "Mount": 9855,
      "rum": 9856,
      "valmistui": 9857,
      "nu": 9858,
      "Japan": 9859,
      "kohd": 9860,
      "ikk": 9861,
      "Tar": 9862,
      "julkaisi": 9863,
      "kylän": 9864,
      "kien": 9865,
      "työn": 9866,
      "ohjaa": 9867,
      "1984": 9868,
      "uransa": 9869,
      "Go": 9870,
      "niiden": 9871,
      "keis": 9872,
      "1985": 9873,
      "huon": 9874,
      "oso": 9875,
      "sing": 9876,
      "NEAT": 9877,
      "laula": 9878,
      "sal": 9879,
      "kiso": 9880,
      "jia": 9881,
      "yleis": 9882,
      "zz": 9883,
      "Ve": 9884,
      "ette": 9885,
      "uma": 9886,
      "bas": 9887,
      "kuts": 9888,
      "voima": 9889,
      "lain": 9890,
      "tis": 9891,
      "Palomar": 9892,
      "ner": 9893,
      "Ver": 9894,
      "kuningas": 9895,
      "paljon": 9896,
      "prons": 9897,
      "Mt": 9898,
      "yhä": 9899,
      "tilan": 9900,
      "Mc": 9901,
      "Alu": 9902,
      "Ter": 9903,
      "iko": 9904,
      "rä": 9905,
      "sarjassa": 9906,
      "tuot": 9907,
      "erila": 9908,
      "levy": 9909,
      "fi": 9910,
      "Ranskan": 9911,
      "Ben": 9912,
      "tek": 9913,
      "ksessa": 9914,
      "ji": 9915,
      "imon": 9916,
      "98": 9917,
      "ire": 9918,
      "rien": 9919,
      "lää": 9920,
      "jolla": 9921,
      "Alus": 9922,
      "Ur": 9923,
      "ksesta": 9924,
      "gel": 9925,
      "järjest": 9926,
      "paikka": 9927,
      "Euroopan": 9928,
      "vara": 9929,
      "kausi": 9930,
      "ksella": 9931,
      "tote": 9932,
      "enem": 9933,
      "jalle": 9934,
      "Britan": 9935,
      "lähes": 9936,
      "elämä": 9937,
      "Jan": 9938,
      "Gran": 9939,
      "menn": 9940,
      "kansan": 9941,
      "66": 9942,
      "jö": 9943,
      "ulle": 9944,
      "Fer": 9945,
      "isän": 9946,
      "fil": 9947,
      "loissa": 9948,
      "jaan": 9949,
      "valtio": 9950,
      "ukku": 9951,
      "Pr": 9952,
      "1982": 9953,
      "Ab": 9954,
      "Lam": 9955,
      "Nyky": 9956,
      "1983": 9957,
      "prosen": 9958,
      "1981": 9959,
      "mina": 9960,
      "Am": 9961,
      "aikaan": 9962,
      "haa": 9963,
      "Ky": 9964,
      "teet": 9965,
      "jun": 9966,
      "välillä": 9967,
      "tämä": 9968,
      "säil": 9969,
      "yvä": 9970,
      "itin": 9971,
      "seitse": 9972,
      "asema": 9973,
      "tiiv": 9974,
      "str": 9975,
      "Con": 9976,
      "ityksen": 9977,
      "pitu": 9978,
      "öl": 9979,
      "Saksa": 9980,
      "alis": 9981,
      "voin": 9982,
      "joki": 9983,
      "ric": 9984,
      "meen": 9985,
      "52": 9986,
      "ya": 9987,
      "Wor": 9988,
      "nie": 9989,
      "onnis": 9990,
      "kahd": 9991,
      "Lon": 9992,
      "1979": 9993,
      "78": 9994,
      "uli": 9995,
      "Han": 9996,
      "omista": 9997,
      "imm": 9998,
      "joutui": 9999,
      "maat": 10000,
      "Hänet": 10001,
      "saavutti": 10002,
      "tuksen": 10003,
      "Kaud": 10004,
      "liitty": 10005,
      "ler": 10006,
      "ket": 10007,
      "Katso": 10008,
      "itto": 10009,
      "kone": 10010,
      "Kaupun": 10011,
      "saakka": 10012,
      "perustettiin": 10013,
      "toimii": 10014,
      "ames": 10015,
      "1950": 10016,
      "54": 10017,
      "Mor": 10018,
      "tas": 10019,
      "kaisin": 10020,
      "Cor": 10021,
      "ittu": 10022,
      "..": 10023,
      "venä": 10024,
      "lopulta": 10025,
      "che": 10026,
      "tieto": 10027,
      "lon": 10028,
      "kaupung": 10029,
      "käyttää": 10030,
      "auto": 10031,
      "1975": 10032,
      "palasi": 10033,
      "joukkueen": 10034,
      "albumi": 10035,
      "Min": 10036,
      "Bro": 10037,
      "Kä": 10038,
      "uksessa": 10039,
      "Tied": 10040,
      "tuotta": 10041,
      "OS": 10042,
      "ittain": 10043,
      "kehit": 10044,
      "koh": 10045,
      "del": 10046,
      "ikon": 10047,
      "ov": 10048,
      "Neuvos": 10049,
      "gn": 10050,
      "kilpailuissa": 10051,
      "oppi": 10052,
      "Turun": 10053,
      "sson": 10054,
      "Englan": 10055,
      "hie": 10056,
      "76": 10057,
      "ban": 10058,
      "gar": 10059,
      "siirr": 10060,
      "runo": 10061,
      "ensi": 10062,
      "valtion": 10063,
      "miel": 10064,
      "kitara": 10065,
      "ttiin": 10066,
      "ajo": 10067,
      "estaan": 10068,
      "hty": 10069,
      "51": 10070,
      "Mal": 10071,
      "ida": 10072,
      "käytö": 10073,
      "istaan": 10074,
      "urhe": 10075,
      "ust": 10076,
      "Yle": 10077,
      "Ruotsin": 10078,
      "”.": 10079,
      "Pla": 10080,
      "Willi": 10081,
      "tänyt": 10082,
      "ley": 10083,
      "lään": 10084,
      "mana": 10085,
      "1978": 10086,
      "Amer": 10087,
      "Gr": 10088,
      "eten": 10089,
      "käs": 10090,
      "edelleen": 10091,
      "jalka": 10092,
      "ueen": 10093,
      "siihen": 10094,
      "opiskeli": 10095,
      "1977": 10096,
      "iva": 10097,
      "tuho": 10098,
      "julkaistu": 10099,
      "kuului": 10100,
      "istettiin": 10101,
      "Kon": 10102,
      "vuodelta": 10103,
      "tulee": 10104,
      "laivas": 10105,
      "ottu": 10106,
      "Kil": 10107,
      "Sil": 10108,
      "viisi": 10109,
      "1976": 10110,
      "53": 10111,
      "Fa": 10112,
      "Espan": 10113,
      "mmin": 10114,
      "At": 10115,
      "vis": 10116,
      "alus": 10117,
      "imen": 10118,
      "Tämän": 10119,
      "perusti": 10120,
      "Wal": 10121,
      "ain": 10122,
      "ppo": 10123,
      "vid": 10124,
      "Bla": 10125,
      "ydessä": 10126,
      "nia": 10127,
      "Kuva": 10128,
      "avulla": 10129,
      "99": 10130,
      "Ser": 10131,
      "siv": 10132,
      "kiinn": 10133,
      "toliit": 10134,
      "teho": 10135,
      "neljän": 10136,
      "Chr": 10137,
      "viin": 10138,
      "etun": 10139,
      "isena": 10140,
      "1973": 10141,
      "uksia": 10142,
      "1930": 10143,
      "kra": 10144,
      "ohja": 10145,
      "kur": 10146,
      "joukko": 10147,
      "otto": 10148,
      "uttu": 10149,
      "400": 10150,
      "68": 10151,
      "muita": 10152,
      "heidän": 10153,
      "pääsi": 10154,
      "olf": 10155,
      "puna": 10156,
      "toista": 10157,
      "takaisin": 10158,
      "osassa": 10159,
      "mel": 10160,
      "vaikka": 10161,
      "med": 10162,
      "pois": 10163,
      "hat": 10164,
      "1972": 10165,
      "Mos": 10166,
      "katso": 10167,
      "con": 10168,
      "lähellä": 10169,
      "Fin": 10170,
      "Neuvostoliit": 10171,
      "gan": 10172,
      "tunnetaan": 10173,
      "1974": 10174,
      "Maan": 10175,
      "alkaen": 10176,
      "neen": 10177,
      "William": 10178,
      "jouko": 10179,
      "Ham": 10180,
      "suuri": 10181,
      "olin": 10182,
      "kahde": 10183,
      "sitten": 10184,
      "isessa": 10185,
      "III": 10186,
      "tetaan": 10187,
      "metsä": 10188,
      "mpi": 10189,
      "bin": 10190,
      "myy": 10191,
      "kuvan": 10192,
      "muiden": 10193,
      "osin": 10194,
      "Hol": 10195,
      "taas": 10196,
      "kkö": 10197,
      ".)": 10198,
      "1940": 10199,
      "taistelu": 10200,
      "ens": 10201,
      "tän": 10202,
      "Kul": 10203,
      "War": 10204,
      "synty": 10205,
      "avat": 10206,
      "nor": 10207,
      "piti": 10208,
      "\".": 10209,
      "deksi": 10210,
      "mällä": 10211,
      "inta": 10212,
      "meren": 10213,
      "mäki": 10214,
      "Paul": 10215,
      "käyttöön": 10216,
      "Pää": 10217,
      "häntä": 10218,
      "erityisesti": 10219,
      "miä": 10220,
      "Yhdysvalloissa": 10221,
      "jaksi": 10222,
      "pos": 10223,
      "jopa": 10224,
      "ottelussa": 10225,
      "Air": 10226,
      "kinen": 10227,
      "vissa": 10228,
      "valmista": 10229,
      "1918": 10230,
      "olem": 10231,
      "kuitenkaan": 10232,
      "ukset": 10233,
      "aat": 10234,
      "kirjoitti": 10235,
      "ttö": 10236,
      "ret": 10237,
      "du": 10238,
      "valko": 10239,
      "miljoonaa": 10240,
      "kokon": 10241,
      "67": 10242,
      "prosenttia": 10243,
      "uut": 10244,
      "isellä": 10245,
      "nian": 10246,
      "juoks": 10247,
      "erä": 10248,
      "EM": 10249,
      "sto": 10250,
      "My": 10251,
      "jälle": 10252,
      "ward": 10253,
      "1968": 10254,
      "za": 10255,
      "eks": 10256,
      "uskon": 10257,
      "myön": 10258,
      "SA": 10259,
      "öm": 10260,
      "ettel": 10261,
      "Ul": 10262,
      "ruots": 10263,
      "Musi": 10264,
      "Tom": 10265,
      "Pie": 10266,
      "allisen": 10267,
      "musiikki": 10268,
      "pyö": 10269,
      "vier": 10270,
      "käyn": 10271,
      "tra": 10272,
      "sul": 10273,
      "kari": 10274,
      "britti": 10275,
      "tari": 10276,
      "ippu": 10277,
      "ustr": 10278,
      "Mil": 10279,
      "arin": 10280,
      "hopeaa": 10281,
      "anin": 10282,
      "merkit": 10283,
      "1969": 10284,
      "johon": 10285,
      "til": 10286,
      "ännö": 10287,
      "88": 10288,
      "1971": 10289,
      "kunnassa": 10290,
      "samalla": 10291,
      "Pan": 10292,
      "Inter": 10293,
      "tyivät": 10294,
      "yi": 10295,
      "Suomi": 10296,
      "alkuperä": 10297,
      "aana": 10298,
      "77": 10299,
      "Vil": 10300,
      "ft": 10301,
      "teita": 10302,
      "osof": 10303,
      "Län": 10304,
      "piis": 10305,
      "englan": 10306,
      "ellinen": 10307,
      "96": 10308,
      "Pat": 10309,
      "vaihe": 10310,
      "versio": 10311,
      "gu": 10312,
      "ytti": 10313,
      "--": 10314,
      "vallat": 10315,
      "lähte": 10316,
      "vaati": 10317,
      "ransk": 10318,
      "saapu": 10319,
      "Fo": 10320,
      "Tš": 10321,
      "toiminut": 10322,
      "Pari": 10323,
      "stu": 10324,
      "ld": 10325,
      "kahden": 10326,
      "1920": 10327,
      "esiinty": 10328,
      "Tiedosto": 10329,
      "mitta": 10330,
      "mitä": 10331,
      "hkö": 10332,
      "kuvat": 10333,
      "ksiin": 10334,
      "MS": 10335,
      "net": 10336,
      "Ot": 10337,
      "fa": 10338,
      "telussa": 10339,
      "York": 10340,
      "muutti": 10341,
      "ose": 10342,
      "TV": 10343,
      "dia": 10344,
      "jal": 10345,
      "sion": 10346,
      "vuosi": 10347,
      "Bel": 10348,
      "viera": 10349,
      "ight": 10350,
      "nous": 10351,
      "opetta": 10352,
      "én": 10353,
      "Ah": 10354,
      "Bu": 10355,
      "het": 10356,
      "Can": 10357,
      "suurim": 10358,
      "Mad": 10359,
      "1945": 10360,
      "vär": 10361,
      "Pä": 10362,
      "FC": 10363,
      "sijaitseva": 10364,
      "aiemmin": 10365,
      "bar": 10366,
      "rakennus": 10367,
      "arvio": 10368,
      "alun": 10369,
      "uv": 10370,
      "Mä": 10371,
      "Win": 10372,
      "Historia": 10373,
      "album": 10374,
      "rian": 10375,
      "halu": 10376,
      "kulj": 10377,
      "ministeri": 10378,
      "ppu": 10379,
      "kunin": 10380,
      "ensa": 10381,
      "yp": 10382,
      "utuu": 10383,
      "alaisia": 10384,
      "pelin": 10385,
      "Wa": 10386,
      "vista": 10387,
      "1967": 10388,
      "ek": 10389,
      "Di": 10390,
      "veli": 10391,
      "1944": 10392,
      "Kuo": 10393,
      "SP": 10394,
      "Myöhemmin": 10395,
      "oi": 10396,
      "minkä": 10397,
      "pituus": 10398,
      "täy": 10399,
      "takia": 10400,
      "Col": 10401,
      "Kre": 10402,
      "ukseen": 10403,
      "esso": 10404,
      "puheen": 10405,
      "isesta": 10406,
      "180": 10407,
      "Gra": 10408,
      "Micha": 10409,
      "aut": 10410,
      "sivu": 10411,
      "1966": 10412,
      "ore": 10413,
      "itikko": 10414,
      "cu": 10415,
      "saira": 10416,
      "allin": 10417,
      "eihin": 10418,
      "kymmenen": 10419,
      "We": 10420,
      "1964": 10421,
      "IF": 10422,
      "ottaa": 10423,
      "97": 10424,
      "imä": 10425,
      "maksi": 10426,
      "mun": 10427,
      "työskenteli": 10428,
      "Cla": 10429,
      "leve": 10430,
      "1900": 10431,
      "Kiin": 10432,
      "BN": 10433,
      "Du": 10434,
      "David": 10435,
      "pitää": 10436,
      "fia": 10437,
      "yliopiston": 10438,
      "mässä": 10439,
      "vallis": 10440,
      "ville": 10441,
      "Helsing": 10442,
      "länsi": 10443,
      "inan": 10444,
      "300": 10445,
      "Suur": 10446,
      "itettu": 10447,
      "ung": 10448,
      "istettu": 10449,
      "64": 10450,
      "Ei": 10451,
      "65": 10452,
      "astaan": 10453,
      "ete": 10454,
      "myötä": 10455,
      "koulun": 10456,
      "toiseksi": 10457,
      "Jon": 10458,
      "Uni": 10459,
      "johti": 10460,
      "nais": 10461,
      "liiga": 10462,
      "Venäjä": 10463,
      "Yhdysvallat": 10464,
      "Joukku": 10465,
      "1965": 10466,
      "annut": 10467,
      "uudelleen": 10468,
      "kansain": 10469,
      "Tul": 10470,
      "mäen": 10471,
      "kala": 10472,
      "otettiin": 10473,
      "kate": 10474,
      "jassa": 10475,
      "varten": 10476,
      "romaan": 10477,
      "muse": 10478,
      "inaan": 10479,
      "Don": 10480,
      "paras": 10481,
      "Qu": 10482,
      "tilas": 10483,
      "Tal": 10484,
      "merkki": 10485,
      "kultaa": 10486,
      "ved": 10487,
      "jääkie": 10488,
      "sur": 10489,
      "tunnetu": 10490,
      "ranta": 10491,
      "tic": 10492,
      "Cam": 10493,
      "kunnes": 10494,
      "ottelun": 10495,
      "itteet": 10496,
      "Robert": 10497,
      "1939": 10498,
      "hyväks": 10499,
      "rauta": 10500,
      "-,": 10501,
      "käsi": 10502,
      "tit": 10503,
      "juh": 10504,
      "filosof": 10505,
      "Star": 10506,
      "Jus": 10507,
      "\",": 10508,
      "yssä": 10509,
      "ima": 10510,
      "oita": 10511,
      "ith": 10512,
      "Anderson": 10513,
      "joten": 10514,
      "järv": 10515,
      "utaan": 10516,
      "enää": 10517,
      "terin": 10518,
      "Tra": 10519,
      "käy": 10520,
      "maala": 10521,
      "väestö": 10522,
      "seitsemän": 10523,
      "entinen": 10524,
      "gas": 10525,
      "You": 10526,
      "kuntaan": 10527,
      "rid": 10528,
      "essori": 10529,
      "koos": 10530,
      "pronssia": 10531,
      "arvos": 10532,
      "ome": 10533,
      "Esi": 10534,
      "vuotiaana": 10535,
      "poliitt": 10536,
      "eto": 10537,
      "kuusi": 10538,
      "koul": 10539,
      "taite": 10540,
      "Saar": 10541,
      "allaan": 10542,
      "illaan": 10543,
      "hallin": 10544,
      "Pri": 10545,
      "tunnettu": 10546,
      "Lop": 10547,
      "eena": 10548,
      "are": 10549,
      "yhtä": 10550,
      "Super": 10551,
      "vastaa": 10552,
      "Michael": 10553,
      "pääll": 10554,
      "keske": 10555,
      "Carl": 10556,
      "tisen": 10557,
      "ota": 10558,
      "tansa": 10559,
      "jatkoi": 10560,
      "ISBN": 10561,
      "kartan": 10562,
      "kossa": 10563,
      "aikaa": 10564,
      "itsenä": 10565,
      "ksin": 10566,
      "etä": 10567,
      "ikku": 10568,
      "Len": 10569,
      "Alex": 10570,
      "yhteydessä": 10571,
      "Sing": 10572,
      "cm": 10573,
      "edusti": 10574,
      "vassa": 10575,
      "Rich": 10576,
      "Au": 10577,
      "1962": 10578,
      "musta": 10579,
      "tehty": 10580,
      "kirj": 10581,
      "Ph": 10582,
      "ellisen": 10583,
      "koke": 10584,
      "ski": 10585,
      "lähet": 10586,
      "PS": 10587,
      "pelaaja": 10588,
      "Järven": 10589,
      "1941": 10590,
      "isenä": 10591,
      "vaikut": 10592,
      "1963": 10593,
      "Gar": 10594,
      "Sh": 10595,
      "dem": 10596,
      "tional": 10597,
      "Keski": 10598,
      "tos": 10599,
      "69": 10600,
      "vapaa": 10601,
      "Ala": 10602,
      "etel": 10603,
      "näky": 10604,
      "enemmän": 10605,
      "gon": 10606,
      "telun": 10607,
      "Ac": 10608,
      "01": 10609,
      "sata": 10610,
      "”,": 10611,
      "CD": 10612,
      "vide": 10613,
      "ruu": 10614,
      "uun": 10615,
      "Bur": 10616,
      "kois": 10617,
      "voitta": 10618,
      "olleet": 10619,
      "nimeltä": 10620,
      "uku": 10621,
      "ze": 10622,
      "Pen": 10623,
      "esiintyy": 10624,
      "gia": 10625,
      "viiden": 10626,
      "menesty": 10627,
      "Johan": 10628,
      "hahmo": 10629,
      "elokuvan": 10630,
      "poliitikko": 10631,
      "Kas": 10632,
      "Mas": 10633,
      "keä": 10634,
      "tian": 10635,
      "Gre": 10636,
      "muoto": 10637,
      "2023": 10638,
      "rad": 10639,
      "sille": 10640,
      "ott": 10641,
      "siellä": 10642,
      "liike": 10643,
      "puolue": 10644,
      "usko": 10645,
      "turna": 10646,
      "Tans": 10647,
      "Ex": 10648,
      "ald": 10649,
      "mansa": 10650,
      "Elä": 10651,
      "Matti": 10652,
      "Ven": 10653,
      "laulaja": 10654,
      "ny": 10655,
      "Martin": 10656,
      "Tampereen": 10657,
      "väen": 10658,
      "Alan": 10659,
      "Elokuva": 10660,
      "ila": 10661,
      "ea": 10662,
      "hauta": 10663,
      "presidentti": 10664,
      "uuteen": 10665,
      "1956": 10666,
      "tausta": 10667,
      "Dis": 10668,
      "Nic": 10669,
      "ander": 10670,
      "World": 10671,
      "kerta": 10672,
      "ste": 10673,
      "näkö": 10674,
      "Hy": 10675,
      "päin": 10676,
      "saari": 10677,
      "rau": 10678,
      "vaksi": 10679,
      "isella": 10680,
      "perh": 10681,
      "raali": 10682,
      "perhe": 10683,
      "Stu": 10684,
      "Kaikki": 10685,
      "ssin": 10686,
      "naim": 10687,
      "Jer": 10688,
      "yritys": 10689,
      "tarkoittaa": 10690,
      "Paa": 10691,
      "suunnitel": 10692,
      "LO": 10693,
      "kertoo": 10694,
      "Peter": 10695,
      "aria": 10696,
      "ull": 10697,
      "int": 10698,
      "istin": 10699,
      "saaren": 10700,
      "Rad": 10701,
      "keskusta": 10702,
      "ollista": 10703,
      "voivat": 10704,
      "1961": 10705,
      "västi": 10706,
      "jälleen": 10707,
      "kän": 10708,
      "kävi": 10709,
      "Lou": 10710,
      "lau": 10711,
      "kkin": 10712,
      "Sha": 10713,
      "palloilija": 10714,
      "raan": 10715,
      "1800": 10716,
      "pat": 10717,
      "Ran": 10718,
      "kanna": 10719,
      "asiassa": 10720,
      "kola": 10721,
      "alia": 10722,
      "niitä": 10723,
      "1958": 10724,
      "perinte": 10725,
      "asukka": 10726,
      "150": 10727,
      "Las": 10728,
      "pis": 10729,
      "esiintyi": 10730,
      "Yhty": 10731,
      "Kal": 10732,
      "uksena": 10733,
      "Red": 10734,
      "It": 10735,
      "bor": 10736,
      "Hal": 10737,
      "mann": 10738,
      "cks": 10739,
      "istön": 10740,
      "Austr": 10741,
      "ble": 10742,
      "valmenta": 10743,
      "rom": 10744,
      "Jä": 10745,
      "79": 10746,
      "dy": 10747,
      "ings": 10748,
      "jään": 10749,
      "välinen": 10750,
      "Ga": 10751,
      "62": 10752,
      "CA": 10753,
      "tilainen": 10754,
      "taide": 10755,
      "Fred": 10756,
      "talon": 10757,
      "kehittä": 10758,
      "keskit": 10759,
      "löyd": 10760,
      "vii": 10761,
      "lehti": 10762,
      "sähkö": 10763,
      "Ir": 10764,
      "nis": 10765,
      "Kur": 10766,
      "lopulla": 10767,
      "maton": 10768,
      "SO": 10769,
      "euro": 10770,
      "tuki": 10771,
      "eta": 10772,
      "kisoissa": 10773,
      "Leh": 10774,
      "Ros": 10775,
      "tik": 10776,
      "käytössä": 10777,
      "Lar": 10778,
      "enin": 10779,
      "ettei": 10780,
      "aset": 10781,
      "1959": 10782,
      "liitto": 10783,
      "Yr": 10784,
      "vaike": 10785,
      "Pohjois": 10786,
      "laajen": 10787,
      "lim": 10788,
      "kuud": 10789,
      "1952": 10790,
      "1948": 10791,
      "kg": 10792,
      "James": 10793,
      "mää": 10794,
      "1957": 10795,
      "suhte": 10796,
      "seuran": 10797,
      "stan": 10798,
      "misesta": 10799,
      "kilometrin": 10800,
      "Gi": 10801,
      "zin": 10802,
      "siirrettiin": 10803,
      "Kaudella": 10804,
      "Pekka": 10805,
      "Py": 10806,
      "Kilpa": 10807,
      "sotila": 10808,
      "Nimi": 10809,
      "Uusi": 10810,
      "ansa": 10811,
      "kokoel": 10812,
      "89": 10813,
      "ame": 10814,
      "tarv": 10815,
      "lah": 10816,
      "ood": 10817,
      "Catal": 10818,
      "Chi": 10819,
      "ilijat": 10820,
      "muksen": 10821,
      "Osa": 10822,
      "63": 10823,
      "professori": 10824,
      "rakennettiin": 10825,
      "burg": 10826,
      "olympi": 10827,
      "mie": 10828,
      "utettiin": 10829,
      "joukkueessa": 10830,
      "kohti": 10831,
      "järjestö": 10832,
      "kanta": 10833,
      "katu": 10834,
      "tunnus": 10835,
      "liittyi": 10836,
      "muodosta": 10837,
      "pään": 10838,
      "ija": 10839,
      "yliopistossa": 10840,
      "Blu": 10841,
      "Mosko": 10842,
      "ony": 10843,
      "pes": 10844,
      "Albu": 10845,
      "piispa": 10846,
      "konen": 10847,
      "let": 10848,
      "1942": 10849,
      "maailmansodan": 10850,
      "ss": 10851,
      "1938": 10852,
      "dän": 10853,
      "tely": 10854,
      "Ruots": 10855,
      "jääkiekko": 10856,
      "isestä": 10857,
      "tarjo": 10858,
      "voitto": 10859,
      "tuaan": 10860,
      "uno": 10861,
      "kys": 10862,
      "maalia": 10863,
      "kirjoitta": 10864,
      "basso": 10865,
      "altaan": 10866,
      "johtajana": 10867,
      "1954": 10868,
      "kad": 10869,
      "ittäin": 10870,
      "missa": 10871,
      "rakennettu": 10872,
      "huomatta": 10873,
      "kierro": 10874,
      "tuotanto": 10875,
      "antoi": 10876,
      "ityks": 10877,
      "1946": 10878,
      "apu": 10879,
      "Hi": 10880,
      "teks": 10881,
      "kkaa": 10882,
      "CSS": 10883,
      "Catalina": 10884,
      "tonin": 10885,
      "opet": 10886,
      "Bor": 10887,
      "Puol": 10888,
      "päällik": 10889,
      "teella": 10890,
      "mari": 10891,
      "yhdeks": 10892,
      "Gen": 10893,
      "valo": 10894,
      "Maria": 10895,
      "port": 10896,
      "istettä": 10897,
      "perustettu": 10898,
      "numer": 10899,
      "lyhy": 10900,
      "NEOS": 10901,
      "asto": 10902,
      "albumin": 10903,
      "1943": 10904,
      "pyrki": 10905,
      "ester": 10906,
      "mennessä": 10907,
      "72": 10908,
      "Ensimmäinen": 10909,
      "1955": 10910,
      "paino": 10911,
      "Sin": 10912,
      "itali": 10913,
      "heim": 10914,
      "muisto": 10915,
      "loh": 10916,
      "Mesa": 10917,
      "kahdeksan": 10918,
      "vie": 10919,
      "tain": 10920,
      "määrit": 10921,
      "valuma": 10922,
      "teat": 10923,
      "ling": 10924,
      "61": 10925,
      "Grand": 10926,
      "yhdisty": 10927,
      "Hämeen": 10928,
      "Pol": 10929,
      "puolueen": 10930,
      "Neuvostoliiton": 10931,
      "rich": 10932,
      "71": 10933,
      "lie": 10934,
      "NA": 10935,
      "teja": 10936,
      "74": 10937,
      "tuvat": 10938,
      "Alku": 10939,
      "olleen": 10940,
      "rata": 10941,
      "Met": 10942,
      "ollinen": 10943,
      "päätti": 10944,
      "nus": 10945,
      "uttiin": 10946,
      "tehtiin": 10947,
      "kuor": 10948,
      "meni": 10949,
      "Jar": 10950,
      "Love": 10951,
      "esittä": 10952,
      "unut": 10953,
      "Viitteet": 10954,
      "elämän": 10955,
      "näty": 10956,
      "lad": 10957,
      "Ru": 10958,
      "Vol": 10959,
      "tenä": 10960,
      "maail": 10961,
      "maalin": 10962,
      "1919": 10963,
      "Bill": 10964,
      "vuor": 10965,
      "käytti": 10966,
      "ehti": 10967,
      "85": 10968,
      "Teo": 10969,
      "aiheutta": 10970,
      "alit": 10971,
      "ash": 10972,
      "All": 10973,
      "lämp": 10974,
      "aluksi": 10975,
      "ongel": 10976,
      "Oh": 10977,
      "kuuluvat": 10978,
      "Nuo": 10979,
      "hava": 10980,
      "immat": 10981,
      "skin": 10982,
      "tietoa": 10983,
      "kuvaa": 10984,
      "imet": 10985,
      "neli": 10986,
      "saksalainen": 10987,
      "ilmoitti": 10988,
      "yväs": 10989,
      "sod": 10990,
      "Joukkue": 10991,
      "eld": 10992,
      "maiden": 10993,
      "juuri": 10994,
      "1953": 10995,
      "Anna": 10996,
      "Recor": 10997,
      "Vuosi": 10998,
      "tavoit": 10999,
      "vesistö": 11000,
      "ish": 11001,
      "pysty": 11002,
      "án": 11003,
      "sisältää": 11004,
      "itaan": 11005,
      "1936": 11006,
      "Tho": 11007,
      "etsi": 11008,
      "ster": 11009,
      "Paras": 11010,
      "kirjan": 11011,
      "ympäristö": 11012,
      "Los": 11013,
      "1917": 11014,
      "Kaar": 11015,
      "Länsi": 11016,
      "pom": 11017,
      "1947": 11018,
      "kauppa": 11019,
      "lat": 11020,
      "Vuosina": 11021,
      "Men": 11022,
      "armeijan": 11023,
      "valti": 11024,
      "aiden": 11025,
      "82": 11026,
      "Työ": 11027,
      "Angel": 11028,
      "set": 11029,
      "Sä": 11030,
      "chi": 11031,
      "Tai": 11032,
      "arvon": 11033,
      "toiminta": 11034,
      "pil": 11035,
      "yhtiön": 11036,
      "uudessa": 11037,
      "käytetty": 11038,
      "old": 11039,
      "Sw": 11040,
      "Jyväs": 11041,
      "prin": 11042,
      "Black": 11043,
      "mestaruuden": 11044,
      "92": 11045,
      "Ker": 11046,
      "järjestä": 11047,
      "Hei": 11048,
      "tiede": 11049,
      "päivänä": 11050,
      "orge": 11051,
      "kri": 11052,
      "LONEOS": 11053,
      "saada": 11054,
      "metal": 11055,
      "divisi": 11056,
      "kasva": 11057,
      "Haa": 11058,
      "ensin": 11059,
      "päässä": 11060,
      "ravin": 11061,
      "pelannut": 11062,
      "Ag": 11063,
      ".–": 11064,
      "HMS": 11065,
      "isänsä": 11066,
      "eja": 11067,
      "ikke": 11068,
      "Ura": 11069,
      "ilun": 11070,
      "Kai": 11071,
      "94": 11072,
      "tull": 11073,
      "jalta": 11074,
      "ns": 11075,
      "ytö": 11076,
      "(,": 11077,
      "73": 11078,
      "talous": 11079,
      "Pir": 11080,
      "1937": 11081,
      "vuos": 11082,
      "dyn": 11083,
      "tuivat": 11084,
      "86": 11085,
      "ksista": 11086,
      "kre": 11087,
      "Kesä": 11088,
      "1951": 11089,
      "dor": 11090,
      "laivaston": 11091,
      "jänä": 11092,
      "lasta": 11093,
      "kutsu": 11094,
      "Cha": 11095,
      "malli": 11096,
      "jasta": 11097,
      "lit": 11098,
      "enne": 11099,
      "liigan": 11100,
      "nos": 11101,
      "virallis": 11102,
      "Tampere": 11103,
      "viid": 11104,
      "Jose": 11105,
      "wer": 11106,
      "matto": 11107,
      "Britannian": 11108,
      "maassa": 11109,
      "peri": 11110,
      "päätö": 11111,
      "rooli": 11112,
      "af": 11113,
      "miesten": 11114,
      "tehnyt": 11115,
      "alkaa": 11116,
      "ksiä": 11117,
      "muusi": 11118,
      "Georg": 11119,
      "kolmas": 11120,
      "Mur": 11121,
      "hallituksen": 11122,
      "puolestaan": 11123,
      "julk": 11124,
      "ska": 11125,
      "ampu": 11126,
      "lask": 11127,
      "EA": 11128,
      "ius": 11129,
      "nissa": 11130,
      "iaan": 11131,
      "Antti": 11132,
      "1949": 11133,
      "vaar": 11134,
      "tehtävä": 11135,
      "Ukra": 11136,
      "93": 11137,
      "osaa": 11138,
      "ineen": 11139,
      "puolelle": 11140,
      "äs": 11141,
      "suomen": 11142,
      "Mik": 11143,
      "naisten": 11144,
      "oikeus": 11145,
      "Ali": 11146,
      "suosit": 11147,
      "ano": 11148,
      "vell": 11149,
      "elokuvassa": 11150,
      "cen": 11151,
      "olta": 11152,
      "Ken": 11153,
      "Peli": 11154,
      "bb": 11155,
[...]
